{"[PAD]": 4, "[CLS]": 5, "[UNK]": 6, "[SEP]": 7, "a": 8, "black": 9, "dog": 10, "is": 11, "running": 12, "after": 13, "white": 14, "in": 15, "the": 16, "snow": 17, ".": 18, "chasing": 19, "brown": 20, "through": 21, "two": 22, "dogs": 23, "chase": 24, "each": 25, "other": 26, "across": 27, "snowy": 28, "ground": 29, "play": 30, "together": 31, "low": 32, "lying": 33, "body": 34, "of": 35, "water": 36, "little": 37, "baby": 38, "plays": 39, "cr": 40, "##o": 41, "##quet": 42, "girl": 43, "next": 44, "to": 45, "truck": 46, "child": 47, "playing": 48, "by": 49, "kid": 50, "front": 51, "car": 52, "with": 53, "put": 54, "and": 55, "ball": 56, "boy": 57, "hammer": 58, "beside": 59, "has": 60, "something": 61, "hot": 62, "pink": 63, "its": 64, "mouth": 65, "holding": 66, "hat": 67, "shirt": 68, "carrying": 69, "while": 70, "walking": 71, "looking": 72, "forward": 73, "along": 74, "beach": 75, "wearing": 76, "collar": 77, "walks": 78, "on": 79, "sand": 80, "near": 81, "large": 82, "ocean": 83, "red": 84, "fr": 85, "##is": 86, "##bee": 87, "standing": 88, "sandy": 89, "drops": 90, "disc": 91, "flying": 92, "air": 93, "catching": 94, "dropping": 95, "cyclist": 96, "helmet": 97, "riding": 98, "pavement": 99, "bike": 100, "street": 101, "person": 102, ",": 103, "down": 104, "woman": 105, "wears": 106, "blue": 107, "as": 108, "she": 109, "goes": 110, "for": 111, "ride": 112, "shade": 113, "road": 114, "man": 115, "dressed": 116, "purple": 117, "banda": 118, "##nna": 119, "smiles": 120, "at": 121, "people": 122, "watching": 123, "him": 124, "leather": 125, "cha": 126, "##ps": 127, "chain": 128, "##piece": 129, "poses": 130, "camera": 131, "stands": 132, "##lo": 133, "##oke": 134, "##rs": 135, "there": 136, "men": 137, "t": 138, "-": 139, "woodland": 140, "runs": 141, "some": 142, "trees": 143, "young": 144, "dancing": 145, "around": 146, "short": 147, "sleeve": 148, "##d": 149, "jeans": 150, "stops": 151, "smile": 152, "dress": 153, "back": 154, "smiling": 155, "braid": 156, "##s": 157, "looks": 158, "green": 159, "skier": 160, "yellow": 161, "jacket": 162, "airborne": 163, "above": 164, "mountains": 165, "jumps": 166, "high": 167, "view": 168, "skiing": 169, "very": 170, "it": 171, "though": 172, "he": 173, "so": 174, "##e": 175, "doing": 176, "ski": 177, "jump": 178, "pants": 179, "appears": 180, "almost": 181, "fly": 182, "into": 183, "sky": 184, "photographer": 185, "over": 186, "hills": 187, "video": 188, "##ta": 189, "##ping": 190, "natural": 191, "landscape": 192, "out": 193, "rolling": 194, "trip": 195, "##od": 196, "lady": 197, "her": 198, "set": 199, "up": 200, "field": 201, "record": 202, "bunch": 203, "girls": 204, "cheer": 205, "##leader": 206, "outfits": 207, "group": 208, "parade": 209, "perform": 210, "many": 211, "walk": 212, "uniforms": 213, "boat": 214, "canopy": 215, "floating": 216, "calm": 217, "waters": 218, "roof": 219, "middle": 220, "floats": 221, "lake": 222, "catches": 223, "mid": 224, "##air": 225, "terri": 226, "##er": 227, "mix": 228, "leaping": 229, "object": 230, "old": 231, "sitting": 232, "an": 233, "advertisement": 234, "asian": 235, "waiting": 236, "underground": 237, "train": 238, "stop": 239, "sits": 240, "transit": 241, "station": 242, "##lit": 243, "subway": 244, "umbrella": 245, "##qu": 246, "##os": 247, "wall": 248, "blond": 249, "trail": 250, "side": 251, "metal": 252, "fence": 253, "coat": 254, "rural": 255, "flute": 256, "park": 257, "##a": 258, "past": 259, "enclosed": 260, "area": 261, "family": 262, "nine": 263, "including": 264, "four": 265, "children": 266, "pose": 267, "brick": 268, "fireplace": 269, "christmas": 270, "tree": 271, "posing": 272, "happy": 273, "couples": 274, "kids": 275, "picture": 276, "sweater": 277, "pointing": 278, "one": 279, "arms": 280, "outstretched": 281, "finger": 282, "pointed": 283, "another": 284, "stares": 285, "from": 286, "behind": 287, "who": 288, "his": 289, "look": 290, "toward": 291, "points": 292, "hallway": 293, "medium": 294, "sized": 295, "small": 296, "larger": 297, "grassy": 298, "big": 299, "tall": 300, "grass": 301, "three": 302, "flowers": 303, "stuffed": 304, "kitten": 305, "garden": 306, "among": 307, "wild": 308, "##flower": 309, "##ying": 310, "toy": 311, "cat": 312, "long": 313, "raises": 314, "stripes": 315, "signs": 316, "african": 317, "american": 318, "building": 319, "handicapped": 320, "space": 321, "orange": 322, "backwards": 323, "wet": 324, "stick": 325, "shore": 326, "bounds": 327, "splash": 328, "##ing": 329, "off": 330, "paws": 331, "carries": 332, "are": 333, "racing": 334, "ra": 335, "##rac": 336, "##k": 337, "race": 338, "track": 339, "greyhound": 340, "muzzle": 341, "inside": 342, "curb": 343, "rail": 344, "##ed": 345, "dirt": 346, "run": 347, "baseball": 348, "pitcher": 349, "throws": 350, "player": 351, "glove": 352, "pitches": 353, "male": 354, "sports": 355, "outfit": 356, "tries": 357, "catch": 358, "wade": 359, "rock": 360, "shallow": 361, "reach": 362, "##cr": 363, "##op": 364, "light": 365, "paw": 366, "about": 367, "ready": 368, "swim": 369, "5": 370, "school": 371, "cross": 372, "takes": 373, "outside": 374, "photograph": 375, "taking": 376, "pictures": 377, "women": 378, "stand": 379, "jean": 380, "hand": 381, "chest": 382, "nose": 383, "writing": 384, "hands": 385, "store": 386, "denim": 387, "book": 388, "full": 389, "house": 390, "sunglasses": 391, "flower": 392, "sit": 393, "nearby": 394, "left": 395, "adults": 396, "display": 397, "case": 398, "digital": 399, "glass": 400, "sides": 401, "holds": 402, "sideways": 403, "arm": 404, "##board": 405, "ramp": 406, "performing": 407, "trick": 408, "making": 409, "icy": 410, "mountain": 411, "climb": 412, "##ers": 413, "line": 414, "their": 415, "way": 416, "covered": 417, "background": 418, "facing": 419, "jumping": 420, "hoop": 421, "ring": 422, "using": 423, "laptop": 424, "cell": 425, "##phone": 426, "against": 427, "use": 428, "electronics": 429, "bench": 430, "engage": 431, "electronic": 432, "devices": 433, "races": 434, "number": 435, "6": 436, "six": 437, "tan": 438, "gold": 439, "mu": 440, "##x": 441, "edge": 442, "cliff": 443, "scouts": 444, "rest": 445, "bluff": 446, "overlooking": 447, "top": 448, "couple": 449, "wooded": 450, "them": 451, "lined": 452, "friends": 453, "stroll": 454, "forest": 455, "path": 456, "woods": 457, "sponsored": 458, "ri": 459, "smoking": 460, "tires": 461, "drives": 462, "rain": 463, "driving": 464, "headlights": 465, "advertising": 466, "rainy": 467, "lights": 468, "raceway": 469, "bearded": 470, "whilst": 471, "bicycle": 472, "bicycles": 473, "hair": 474, "gives": 475, "peace": 476, "sign": 477, "cap": 478, "crowd": 479, "waving": 480, "flags": 481, "passing": 482, "under": 483, "bridge": 484, "or": 485, "banners": 486, "gets": 487, "pull": 488, "chair": 489, "meal": 490, "table": 491, "cafe": 492, "restaurant": 493, "##y": 494, "getting": 495, "grabs": 496, "seat": 497, "rack": 498, "##et": 499, "round": 500, "handle": 501, "##es": 502, "string": 503, "##less": 504, "backyard": 505, "lawn": 506, "clothing": 507, "yard": 508, "toys": 509, "enjoy": 510, "themselves": 511, "wind": 512, "blows": 513, "tram": 514, "##pol": 515, "##ine": 516, "blonde": 517, "##wi": 518, "##rl": 519, "bi": 520, "##cy": 521, "##cl": 522, "##ists": 523, "between": 524, "wire": 525, "fences": 526, "cyclists": 527, "country": 528, "p": 529, "##yl": 530, "##on": 531, "desert": 532, "biker": 533, "dry": 534, "land": 535, "climbing": 536, "steep": 537, "hill": 538, "climbs": 539, "great": 540, "dane": 541, "spins": 542, "merry": 543, "go": 544, "watch": 545, "spinning": 546, "playground": 547, "that": 548, "skirt": 549, "golden": 550, "retrieve": 551, "##r": 552, "towards": 553, "away": 554, "greet": 555, "##or": 556, "##way": 557, "bus": 558, "onward": 559, "door": 560, "vehicle": 561, "window": 562, "passengers": 563, "peaking": 564, "peering": 565, "hiding": 566, "peeking": 567, "striped": 568, "peek": 569, "hold": 570, "drinks": 571, "point": 572, "bottles": 573, "several": 574, "this": 575, "photo": 576, "beers": 577, "border": 578, "col": 579, "##lie": 580, "bed": 581, "tennis": 582, "peak": 583, "rocks": 584, "##cap": 585, "##ped": 586, "hike": 587, "following": 588, "surrounded": 589, "distance": 590, "smoke": 591, "comes": 592, "starts": 593, "broken": 594, "during": 595, "racetrack": 596, "bull": 597, "leaves": 598, "bags": 599, "i": 600, "##gl": 601, "##oo": 602, "cave": 603, "luggage": 604, "stay": 605, "backpack": 606, "piled": 607, "ice": 608, "visible": 609, "hole": 610, "starting": 611, "steps": 612, "##rky": 613, "putting": 614, "legs": 615, "pond": 616, "busy": 617, "city": 618, "silhouette": 619, "buildings": 620, "crowded": 621, "th": 622, "##re": 623, "shot": 624, "turned": 625, "chases": 626, "threw": 627, "interacting": 628, "opposite": 629, "direction": 630, "fetch": 631, "also": 632, "outdoors": 633, "cameras": 634, "third": 635, "river": 636, "backdrop": 637, "face": 638, "rope": 639, "swimming": 640, "creek": 641, "rot": 642, "##weiler": 643, "playfully": 644, "rolls": 645, "int": 646, "chewing": 647, "resting": 648, "game": 649, "elderly": 650, "straw": 651, "alone": 652, "haired": 653, "gray": 654, "dark": 655, "beard": 656, "guitar": 657, "attractive": 658, "halo": 659, "head": 660, "ceiling": 661, "wide": 662, "drink": 663, "upward": 664, "reading": 665, "paperback": 666, "elder": 667, "scarf": 668, "older": 669, "reads": 670, "mo": 671, "##to": 672, "##cross": 673, "zip": 674, "motorcycle": 675, "tight": 676, "turn": 677, "motor": 678, "##bi": 679, "##ke": 680, "bright": 681, "someone": 682, "fall": 683, "rider": 684, "cot": 685, "sleeping": 686, "makeshift": 687, "beds": 688, "hanging": 689, "##ide": 690, "skate": 691, "hopes": 692, "landing": 693, "teenage": 694, "flipping": 695, "tricks": 696, "colored": 697, "protest": 698, "banner": 699, "staring": 700, "religious": 701, "sidewalk": 702, "poster": 703, "ma": 704, "##mbo": 705, "\"": 706, "image": 707, "teddy": 708, "bear": 709, "showing": 710, "hum": 711, "stool": 712, "trying": 713, "sell": 714, "animals": 715, "selling": 716, "various": 717, "vendor": 718, "sells": 719, "'": 720, "s": 721, "##fl": 722, "##atable": 723, "guy": 724, "navy": 725, "shorts": 726, "pool": 727, "football": 728, "trunks": 729, "strange": 730, "diving": 731, "plastic": 732, "slide": 733, "equipment": 734, "shaded": 735, "fire": 736, "baton": 737, "day": 738, "jug": 739, "##gling": 740, "flames": 741, "bubbles": 742, "float": 743, "popping": 744, "woven": 745, "##bo": 746, "##gga": 747, "##n": 748, "knit": 749, "##ted": 750, "right": 751, "po": 752, "##of": 753, "wool": 754, "##en": 755, "shoes": 756, "sandals": 757, "tug": 758, "war": 759, "pulling": 760, "end": 761, "##t": 762, "surf": 763, "wave": 764, "surfer": 765, "surfing": 766, "attempting": 767, "sea": 768, "huge": 769, "sunset": 770, "rides": 771, "biking": 772, "##kes": 773, "muddy": 774, "slope": 775, "crossing": 776, "buses": 777, "##wr": 778, "##ap": 779, "hurrying": 780, "heads": 781, "night": 782, "phone": 783, "talks": 784, "pile": 785, "stunt": 786, "soccer": 787, "uniform": 788, "kick": 789, "match": 790, "watches": 791, "knee": 792, "female": 793, "break": 794, "driver": 795, "wheel": 796, "thumbs": 797, "before": 798, "polka": 799, "dots": 800, "boots": 801, "hu": 802, "hip": 803, "kim": 804, "##ono": 805, "purse": 806, "followed": 807, "redhead": 808, "pedestrians": 809, "mean": 810, "##der": 811, "casually": 812, "barefoot": 813, "cute": 814, "puppy": 815, "chew": 816, "fluffy": 817, "rings": 818, "dock": 819, "laughing": 820, "bucket": 821, "pier": 822, "beneath": 823, "dances": 824, "room": 825, "balloons": 826, "floor": 827, "socks": 828, "wooden": 829, "strewn": 830, "strings": 831, "con": 832, "##fe": 833, "##tti": 834, "##jean": 835, "wood": 836, "mother": 837, "both": 838, "aw": 839, "##ning": 840, "ledge": 841, "scales": 842, "tent": 843, "being": 844, "enter": 845, "fishing": 846, "setting": 847, "hut": 848, "iced": 849, "tar": 850, "##p": 851, "structure": 852, "surface": 853, "few": 854, "foam": 855, "statue": 856, "liberty": 857, "hats": 858, "take": 859, "photos": 860, "new": 861, "york": 862, "get": 863, "taken": 864, "fight": 865, "das": 866, "##chu": 867, "jersey": 868, "leaps": 869, "dive": 870, "going": 871, "begin": 872, "sheer": 873, "pretty": 874, "flat": 875, "rocky": 876, "card": 877, "what": 878, "?": 879, "pic": 880, "says": 881, "they": 882, "bathing": 883, "suit": 884, "sp": 885, "##rin": 886, "##kle": 887, "sliding": 888, "pad": 889, "##dling": 890, "kidd": 891, "##ie": 892, "lone": 893, "flies": 894, "leaf": 895, "pulled": 896, "shovel": 897, "##ward": 898, "distorted": 899, "open": 900, "ends": 901, "bottom": 902, "just": 903, "reaching": 904, "lands": 905, "reaches": 906, "piano": 907, "sings": 908, "preparing": 909, "sing": 910, "singer": 911, "music": 912, "bare": 913, "teeth": 914, "tongue": 915, "expanse": 916, "curly": 917, "violin": 918, "bo": 919, "walls": 920, "posters": 921, "rubbing": 922, "chin": 923, "be": 924, "cover": 925, "teenager": 926, "struggles": 927, "carry": 928, "pig": 929, "##gy": 930, "##ng": 931, "paved": 932, "covering": 933, "arab": 934, "tu": 935, "##rba": 936, "facial": 937, "style": 938, "##car": 939, "##f": 940, "grey": 941, "bird": 942, "##ally": 943, "waves": 944, "roll": 945, "crane": 946, "upon": 947, "onto": 948, "pole": 949, "swings": 950, "silver": 951, "swinging": 952, "bounce": 953, "leo": 954, "##tar": 955, "st": 956, "##rad": 957, "##dle": 958, "split": 959, "hello": 960, "kitty": 961, "does": 962, "leg": 963, "splits": 964, "leans": 965, "board": 966, "platform": 967, "eating": 968, "seeds": 969, "eats": 970, "sun": 971, "clinging": 972, "stone": 973, "friend": 974, "helps": 975, "help": 976, "learning": 977, "how": 978, "helping": 979, "sweatshirt": 980, "not": 981, "far": 982, "racer": 983, "slightly": 984, "competition": 985, "circuit": 986, "cheering": 987, "grabbing": 988, "ankle": 989, "oklahoma": 990, "score": 991, "fans": 992, "athlete": 993, "performs": 994, "herself": 995, "bar": 996, "vault": 997, "upside": 998, "attempts": 999, "feet": 1000, "do": 1001, "gap": 1002, "flip": 1003, "blocks": 1004, "concrete": 1005, "carefully": 1006, "crosses": 1007, "reflection": 1008, "caught": 1009, "pajamas": 1010, "hall": 1011, "hardwood": 1012, "floors": 1013, "lit": 1014, "todd": 1015, "##ler": 1016, "chairs": 1017, "##l": 1018, "folding": 1019, "row": 1020, "talking": 1021, "spotted": 1022, "fast": 1023, "seated": 1024, "stadium": 1025, "event": 1026, "fill": 1027, "packed": 1028, "indoor": 1029, "dig": 1030, "duck": 1031, "pet": 1032, "chased": 1033, "parachute": 1034, "lifting": 1035, "attached": 1036, "para": 1037, "##sai": 1038, "suspended": 1039, "sunny": 1040, "gliding": 1041, "backed": 1042, "##boarding": 1043, "slides": 1044, "railing": 1045, "shine": 1046, "skating": 1047, "stair": 1048, "sl": 1049, "##ding": 1050, "stairs": 1051, "have": 1052, "pillow": 1053, "having": 1054, "neck": 1055, "graz": 1056, "flight": 1057, "boats": 1058, "boxing": 1059, "boxers": 1060, "fighting": 1061, "box": 1062, "faces": 1063, "funny": 1064, "makes": 1065, "glasses": 1066, "rusty": 1067, "bark": 1068, "barking": 1069, "hose": 1070, "pouring": 1071, "drinking": 1072, "which": 1073, "sq": 1074, "##ui": 1075, "##rted": 1076, "##wear": 1077, "wings": 1078, "##suit": 1079, "lacrosse": 1080, "players": 1081, "struggling": 1082, "control": 1083, "team": 1084, "breaks": 1085, "hit": 1086, "hockey": 1087, "type": 1088, "sport": 1089, "like": 1090, "sticks": 1091, "guys": 1092, "all": 1093, "saying": 1094, "free": 1095, "dinner": 1096, "cement": 1097, "prepares": 1098, "wipe": 1099, "##out": 1100, "hugging": 1101, "embracing": 1102, "hugs": 1103, "dun": 1104, "##ks": 1105, "basketball": 1106, "make": 1107, "basket": 1108, "goal": 1109, "##king": 1110, "grinding": 1111, "steel": 1112, "guard": 1113, "##rail": 1114, "homemade": 1115, "made": 1116, "piece": 1117, "log": 1118, "leap": 1119, "crystal": 1120, "clear": 1121, "wrapped": 1122, "tape": 1123, "brother": 1124, "superman": 1125, "cape": 1126, "cast": 1127, "material": 1128, "super": 1129, "airplane": 1130, "plane": 1131, "jet": 1132, "runway": 1133, "pilot": 1134, "seen": 1135, "windows": 1136, "##fi": 1137, "##rst": 1138, "digging": 1139, "poking": 1140, "brush": 1141, "greenhouse": 1142, "tools": 1143, "work": 1144, "unfinished": 1145, "fishes": 1146, "rod": 1147, "jett": 1148, "boys": 1149, "living": 1150, "shown": 1151, "wear": 1152, "shirts": 1153, "computer": 1154, "monitor": 1155, "eat": 1156, "cream": 1157, "adult": 1158, "sat": 1159, "world": 1160, "college": 1161, "tackled": 1162, "jerseys": 1163, "tackle": 1164, "tack": 1165, "##ling": 1166, "uniformed": 1167, "try": 1168, "fan": 1169, "painting": 1170, "paint": 1171, "within": 1172, "painted": 1173, "b": 1174, "##lea": 1175, "##chers": 1176, "3": 1177, "dal": 1178, "##mat": 1179, "##ians": 1180, "spots": 1181, "palm": 1182, "route": 1183, "stretch": 1184, "displaying": 1185, "paintings": 1186, "framed": 1187, "artwork": 1188, "sale": 1189, "des": 1190, "##olate": 1191, "fallen": 1192, "dead": 1193, "church": 1194, "##ist": 1195, "aerial": 1196, "sc": 1197, "##oot": 1198, "suburban": 1199, "neighborhood": 1200, "center": 1201, "roller": 1202, "##bla": 1203, "##des": 1204, "narrow": 1205, "grind": 1206, "participate": 1207, "martial": 1208, "arts": 1209, "tournament": 1210, "mat": 1211, "protective": 1212, "gear": 1213, "spa": 1214, "helmets": 1215, "##rring": 1216, "##boards": 1217, "skater": 1218, "##ds": 1219, "tee": 1220, "##shi": 1221, "##rt": 1222, "flag": 1223, "##band": 1224, "vest": 1225, "indoors": 1226, "bari": 1227, "foot": 1228, "indian": 1229, "crossed": 1230, "folded": 1231, "ethnic": 1232, "outdoor": 1233, "market": 1234, "shining": 1235, "graffiti": 1236, "plank": 1237, "no": 1238, "hung": 1239, "gallery": 1240, "naked": 1241, "individuals": 1242, "chinese": 1243, "ladies": 1244, "bank": 1245, "locker": 1246, "##weed": 1247, "coming": 1248, "moss": 1249, "descends": 1250, "hiking": 1251, "bringing": 1252, "gravel": 1253, "amidst": 1254, "autumn": 1255, "others": 1256, "laugh": 1257, "touching": 1258, "laughs": 1259, "fun": 1260, "blow": 1261, "##up": 1262, "##hing": 1263, "wadi": 1264, "bald": 1265, "drag": 1266, "dresses": 1267, "matching": 1268, "jewelry": 1269, "clothes": 1270, "formally": 1271, "jumped": 1272, "sniff": 1273, "##mt": 1274, "walkway": 1275, "moving": 1276, "bump": 1277, "furry": 1278, "doorway": 1279, "leading": 1280, "plants": 1281, "patio": 1282, "pot": 1283, "hairy": 1284, "step": 1285, "cars": 1286, "leave": 1287, "start": 1288, "twilight": 1289, "beginning": 1290, "see": 1291, "racers": 1292, "harness": 1293, "pack": 1294, "winter": 1295, "soaking": 1296, "terrain": 1297, "clutching": 1298, "turquoise": 1299, "thin": 1300, "markings": 1301, "ears": 1302, "##rsa": 1303, "##ult": 1304, "throwing": 1305, "tossing": 1306, "touches": 1307, "challenging": 1308, "teams": 1309, "quickly": 1310, "meadow": 1311, "crashing": 1312, "follows": 1313, "laying": 1314, "power": 1315, "lines": 1316, "unusual": 1317, "shaped": 1318, "stump": 1319, "teammates": 1320, "referee": 1321, "breaking": 1322, "artist": 1323, "canvas": 1324, "overall": 1325, "ease": 1326, "##all": 1327, "##brush": 1328, "shady": 1329, "travels": 1330, "heavily": 1331, "fangs": 1332, "german": 1333, "shepherd": 1334, "leash": 1335, "somebody": 1336, "falling": 1337, "backward": 1338, "urban": 1339, "partially": 1340, "band": 1341, "guitars": 1342, "suits": 1343, "electric": 1344, "musicians": 1345, "curtain": 1346, "##olic": 1347, "pan": 1348, "mini": 1349, "heels": 1350, "pumps": 1351, "lap": 1352, "steer": 1353, "suv": 1354, "drivers": 1355, "jeep": 1356, "cords": 1357, "abs": 1358, "##eil": 1359, "rep": 1360, "##elling": 1361, "flock": 1362, "birds": 1363, "mural": 1364, "pigeons": 1365, "bride": 1366, "newly": 1367, "wed": 1368, "wife": 1369, "held": 1370, "##wed": 1371, "polo": 1372, "hides": 1373, "overgrown": 1374, "bushes": 1375, "grasses": 1376, "boogie": 1377, "cushion": 1378, "spider": 1379, "patterned": 1380, "base": 1381, "close": 1382, "incoming": 1383, "dirty": 1384, "crashes": 1385, "beyond": 1386, "relaxing": 1387, "trench": 1388, "waits": 1389, "sculpture": 1390, "bikini": 1391, "pulls": 1392, "taller": 1393, "eye": 1394, "skaters": 1395, "rink": 1396, "scenery": 1397, "mount": 1398, "##ian": 1399, "filled": 1400, "##un": 1401, "castle": 1402, "##rop": 1403, "students": 1404, "campus": 1405, "quad": 1406, "but": 1407, "falls": 1408, "practice": 1409, "asking": 1410, "daughter": 1411, "nice": 1412, "pretending": 1413, "biting": 1414, "limb": 1415, "branch": 1416, "g": 1417, "##na": 1418, "##wing": 1419, "plant": 1420, "un": 1421, "##cut": 1422, "barrel": 1423, "snarl": 1424, "poles": 1425, "seven": 1426, "teenagers": 1427, "wait": 1428, "gate": 1429, "shit": 1430, "puts": 1431, "gesture": 1432, "raised": 1433, "newspaper": 1434, "kitchen": 1435, "owner": 1436, "re": 1437, "##tri": 1438, "##eving": 1439, "dining": 1440, "paper": 1441, "tile": 1442, "sharing": 1443, "kiss": 1444, "cold": 1445, "kissing": 1446, "taxi": 1447, "passes": 1448, "teen": 1449, "coats": 1450, "tunnel": 1451, "halloween": 1452, "eyes": 1453, "crawl": 1454, "beautiful": 1455, "tube": 1456, "leads": 1457, "trucks": 1458, "five": 1459, "obstacle": 1460, "course": 1461, "elephant": 1462, "draped": 1463, "fabric": 1464, "trunk": 1465, "colorful": 1466, "dr": 1467, "foliage": 1468, "swimmers": 1469, "move": 1470, "mud": 1471, "puddle": 1472, "nearly": 1473, "identical": 1474, "dump": 1475, "pour": 1476, "couch": 1477, "bea": 1478, "##ded": 1479, "disk": 1480, "show": 1481, "support": 1482, "state": 1483, "##m": 1484, "com": 1485, "wheeled": 1486, "##ples": 1487, "tri": 1488, "##cycle": 1489, "pedal": 1490, "wheeler": 1491, "2": 1492, "wheels": 1493, "carnival": 1494, "worker": 1495, "animal": 1496, "prizes": 1497, "amongst": 1498, "shelf": 1499, "##bank": 1500, ";": 1501, "camps": 1502, "camping": 1503, "patches": 1504, "supplies": 1505, "ditch": 1506, "##pa": 1507, "##int": 1508, "##ings": 1509, "pain": 1510, "##ib": 1511, "##bles": 1512, "moves": 1513, "tea": 1514, "coffee": 1515, "gather": 1516, "beverages": 1517, "home": 1518, "outs": 1519, "##tre": 1520, "##ache": 1521, "begins": 1522, "spreads": 1523, "plaid": 1524, "print": 1525, "touchdown": 1526, "rescue": 1527, "follow": 1528, "lead": 1529, "canoe": 1530, "still": 1531, "fat": 1532, "traveling": 1533, "stepping": 1534, "shaggy": 1535, "fore": 1536, "##ground": 1537, "inline": 1538, "fish": 1539, "public": 1540, "dust": 1541, "sooner": 1542, "lifted": 1543, "same": 1544, "athletes": 1545, "mann": 1546, "##quin": 1547, "waterfall": 1548, "massive": 1549, "waterfalls": 1550, "guns": 1551, "pa": 1552, "##ion": 1553, "shooting": 1554, "beige": 1555, "athletic": 1556, "coach": 1557, "nike": 1558, "whistle": 1559, "##gle": 1560, "bass": 1561, "hound": 1562, "costumes": 1563, "frame": 1564, "unseen": 1565, "multi": 1566, "excited": 1567, "audience": 1568, "parallel": 1569, "kicks": 1570, "opponent": 1571, "compete": 1572, "karate": 1573, "belts": 1574, "clapping": 1575, "ran": 1576, "lift": 1577, "shakes": 1578, "shaking": 1579, "hood": 1580, "horse": 1581, "jockey": 1582, "performer": 1583, "stage": 1584, "spectators": 1585, "onstage": 1586, "presentation": 1587, "mixing": 1588, "aged": 1589, "dj": 1590, "deck": 1591, "pretend": 1592, "younger": 1593, "tables": 1594, "meet": 1595, "##ggles": 1596, "swimmer": 1597, "competitive": 1598, "apple": 1599, "place": 1600, "bag": 1601, "hips": 1602, "ta": 1603, "tattoo": 1604, "clown": 1605, "##di": 1606, "##ver": 1607, "safely": 1608, "landed": 1609, "glider": 1610, "practicing": 1611, "craft": 1612, "exercises": 1613, "roughly": 1614, "clearing": 1615, "rough": 1616, "extreme": 1617, "carr": 1618, "uses": 1619, "cam": 1620, "##cor": 1621, "films": 1622, "toss": 1623, "empty": 1624, "bottle": 1625, "dug": 1626, "closely": 1627, "volleyball": 1628, "talk": 1629, "marketplace": 1630, "ascending": 1631, "horizontal": 1632, "##pha": 1633, "##rd": 1634, "pair": 1635, "spray": 1636, "fountain": 1637, "splashed": 1638, "sprayed": 1639, "screen": 1640, "life": 1641, "##ic": 1642, "##cle": 1643, "lining": 1644, "coastline": 1645, "location": 1646, "ferry": 1647, "shoreline": 1648, "docked": 1649, "##boat": 1650, "dolphin": 1651, "poke": 1652, "shoe": 1653, "horseshoe": 1654, "corner": 1655, "shoulders": 1656, "these": 1657, "noses": 1658, "numbers": 1659, "dune": 1660, "##craft": 1661, "swing": 1662, "strikes": 1663, "med": 1664, "##ata": 1665, "##tive": 1666, "gestures": 1667, "##al": 1668, "closed": 1669, "##odle": 1670, "sticking": 1671, "butt": 1672, "inspect": 1673, "tattooed": 1674, "gentleman": 1675, "half": 1676, "relax": 1677, "where": 1678, "propped": 1679, "parked": 1680, "slip": 1681, "##pers": 1682, "rec": 1683, "kneeling": 1684, "ridge": 1685, "ancient": 1686, "muscle": 1687, "pass": 1688, "fit": 1689, "##ls": 1690, "tourist": 1691, "floppy": 1692, "span": 1693, "##iel": 1694, "shaw": 1695, "cigarette": 1696, "sweat": 1697, "blanket": 1698, "hooded": 1699, "pipe": 1700, "incense": 1701, "##nd": 1702, "bubble": 1703, "machine": 1704, "bites": 1705, "blowing": 1706, "chunk": 1707, "mit": 1708, "##tens": 1709, "throw": 1710, "##ball": 1711, "grins": 1712, "cl": 1713, "paddle": 1714, "vertical": 1715, "approaching": 1716, "backs": 1717, "tank": 1718, "official": 1719, "marsh": 1720, "mostly": 1721, "swamp": 1722, "rubber": 1723, "chickens": 1724, "chicken": 1725, "eight": 1726, "balls": 1727, "bottoms": 1728, "pushes": 1729, "brunette": 1730, "pushing": 1731, "carriage": 1732, "females": 1733, "fl": 1734, "hurdle": 1735, "lay": 1736, "hang": 1737, "##man": 1738, "##ong": 1739, "figure": 1740, "costume": 1741, "party": 1742, "blood": 1743, "branches": 1744, "bends": 1745, "alley": 1746, "pairs": 1747, "cowboy": 1748, "lass": 1749, "##rling": 1750, "cart": 1751, "(": 1752, ")": 1753, "carrier": 1754, "shopping": 1755, "apart": 1756, "camouflage": 1757, "varying": 1758, "breeds": 1759, "##edd": 1760, "##led": 1761, "town": 1762, "strap": 1763, "bite": 1764, "strip": 1765, "steering": 1766, "ship": 1767, "na": 1768, "##vi": 1769, "##gating": 1770, "partly": 1771, "cloudy": 1772, "skies": 1773, "sailor": 1774, "sail": 1775, "puppet": 1776, "camp": 1777, "van": 1778, "rv": 1779, "snake": 1780, "lean": 1781, "different": 1782, "tub": 1783, "bin": 1784, "##color": 1785, "pen": 1786, "enclosure": 1787, "pit": 1788, "cut": 1789, "balloon": 1790, "only": 1791, "underwear": 1792, "marker": 1793, "drawing": 1794, "markers": 1795, "safety": 1796, "flu": 1797, "##cent": 1798, "neon": 1799, "ribbons": 1800, "competing": 1801, "##ner": 1802, "covers": 1803, "##in": 1804, "##g": 1805, "stones": 1806, "##ce": 1807, "you": 1808, "hi": 1809, "viz": 1810, "jackets": 1811, "carved": 1812, "returns": 1813, "horses": 1814, "pony": 1815, "stare": 1816, "crumbling": 1817, "structures": 1818, "reflections": 1819, "fei": 1820, "##ld": 1821, "shop": 1822, "mall": 1823, "food": 1824, "court": 1825, "art": 1826, "turns": 1827, "ladder": 1828, "reached": 1829, "mesh": 1830, "headed": 1831, "pops": 1832, "##icle": 1833, "frozen": 1834, "treat": 1835, "eyed": 1836, "curious": 1837, "ahead": 1838, "gymnast": 1839, "ropes": 1840, "aid": 1841, "balance": 1842, "dangling": 1843, "straps": 1844, "kicking": 1845, "miami": 1846, "university": 1847, "graf": 1848, "##itt": 1849, "##i": 1850, "scene": 1851, "classic": 1852, "well": 1853, "kept": 1854, "thrown": 1855, "dancers": 1856, "dance": 1857, "prepare": 1858, "hillside": 1859, "##bri": 1860, "##de": 1861, "kay": 1862, "##aker": 1863, "##aking": 1864, "##ak": 1865, "raft": 1866, "spot": 1867, "warmly": 1868, "blur": 1869, "##ry": 1870, "##stand": 1871, "tag": 1872, "touch": 1873, "riders": 1874, "shoulder": 1875, "farm": 1876, "sheep": 1877, "lamb": 1878, "goat": 1879, "places": 1880, "slab": 1881, "twisting": 1882, "hollywood": 1883, "stars": 1884, "examines": 1885, "br": 1886, "##idal": 1887, "wedding": 1888, "ten": 1889, "groom": 1890, "except": 1891, "##sm": 1892, "##sma": 1893, "##ids": 1894, "launch": 1895, "cane": 1896, "lays": 1897, "rests": 1898, "stream": 1899, "dad": 1900, "quarter": 1901, "bush": 1902, "brownish": 1903, "photographs": 1904, "canal": 1905, "#": 1906, "numbered": 1907, "prisoner": 1908, "police": 1909, "officer": 1910, "cop": 1911, "fake": 1912, "##iers": 1913, "mask": 1914, "tie": 1915, "handing": 1916, "papers": 1917, "button": 1918, "masked": 1919, "business": 1920, "attire": 1921, "fa": 1922, "straight": 1923, "profile": 1924, "blurred": 1925, "raced": 1926, "pop": 1927, "weather": 1928, "happily": 1929, "poised": 1930, "candles": 1931, "candle": 1932, "lighting": 1933, "elephants": 1934, "ridden": 1935, "colors": 1936, "##ns": 1937, "eastern": 1938, "give": 1939, "chu": 1940, "##bby": 1941, "remote": 1942, "peers": 1943, "device": 1944, "note": 1945, "writes": 1946, "sw": 1947, "##ves": 1948, "speed": 1949, "sharp": 1950, "crouch": 1951, "rounds": 1952, "##mx": 1953, "without": 1954, "boarding": 1955, "gaze": 1956, "tr": 1957, "##otti": 1958, "stuck": 1959, "trails": 1960, "pine": 1961, "4": 1962, "atv": 1963, "drive": 1964, "net": 1965, "olympics": 1966, "logo": 1967, "##mp": 1968, "soaring": 1969, "underneath": 1970, "##tes": 1971, "batting": 1972, "military": 1973, "speak": 1974, "crying": 1975, "comfort": 1976, "bending": 1977, "assist": 1978, "checking": 1979, "da": 1980, "##pp": 1981, "walked": 1982, "owners": 1983, "hits": 1984, "bat": 1985, "catcher": 1986, "japanese": 1987, "aqua": 1988, "pocket": 1989, "##tan": 1990, "sheets": 1991, "lab": 1992, "below": 1993, "##phones": 1994, "cu": 1995, "##vy": 1996, "elevator": 1997, "kite": 1998, "capped": 1999, "range": 2000, "##house": 2001, "camel": 2002, "##ots": 2003, "ag": 2004, "##ility": 2005, "lifts": 2006, "launches": 2007, "asleep": 2008, "machines": 2009, "##ou": 2010, "##ched": 2011, "atm": 2012, "money": 2013, "sleeps": 2014, "maroon": 2015, "##mation": 2016, "hind": 2017, "counter": 2018, "buying": 2019, "##bag": 2020, "lunch": 2021, "grocery": 2022, "corn": 2023, "co": 2024, "##b": 2025, "ni": 2026, "##bbling": 2027, "ear": 2028, "listen": 2029, "mobile": 2030, "come": 2031, "sets": 2032, "horizon": 2033, "cricket": 2034, "participating": 2035, "opposing": 2036, "##oop": 2037, "pick": 2038, "##mel": 2039, "picking": 2040, "##ons": 2041, "stretches": 2042, "mats": 2043, "circle": 2044, "brightly": 2045, "##ular": 2046, "teaches": 2047, "yoga": 2048, "festival": 2049, "learn": 2050, "stretching": 2051, "upwards": 2052, "legged": 2053, "stock": 2054, "plain": 2055, "pup": 2056, "##pies": 2057, "slam": 2058, "interested": 2059, "grab": 2060, "don": 2061, "##ut": 2062, "inter": 2063, "##tub": 2064, "ties": 2065, "share": 2066, "toast": 2067, "alongside": 2068, "sister": 2069, "mickey": 2070, "mouse": 2071, "ad": 2072, "angle": 2073, "non": 2074, "professional": 2075, "plate": 2076, "guarding": 2077, "runner": 2078, "softball": 2079, "block": 2080, "k": 2081, "##hak": 2082, "wine": 2083, "dim": 2084, "shrub": 2085, "##bery": 2086, "##med": 2087, "column": 2088, "belongings": 2089, "pillar": 2090, "time": 2091, "lot": 2092, "weimar": 2093, "##ane": 2094, "fatigue": 2095, "chop": 2096, "##py": 2097, "rapids": 2098, "reacts": 2099, "earth": 2100, "loop": 2101, "aero": 2102, "##bat": 2103, "leaving": 2104, "single": 2105, "file": 2106, "exhibit": 2107, "archway": 2108, "class": 2109, "columns": 2110, "##tra": 2111, "barbed": 2112, "porch": 2113, "##ly": 2114, "clad": 2115, "cow": 2116, "##girl": 2117, "scan": 2118, "##ti": 2119, "ca": 2120, "##vor": 2121, "special": 2122, "dish": 2123, "towel": 2124, "##el": 2125, "cloth": 2126, "boxer": 2127, "##bu": 2128, "##ll": 2129, "gallo": 2130, "crest": 2131, "##hill": 2132, "watched": 2133, "sneakers": 2134, "highway": 2135, "##iver": 2136, "hilltop": 2137, "item": 2138, "ribbon": 2139, "elegant": 2140, "horns": 2141, "heard": 2142, "goats": 2143, "cluster": 2144, "amused": 2145, "surprised": 2146, "frost": 2147, "fog": 2148, "pushed": 2149, "##ia": 2150, "first": 2151, "bikes": 2152, "chat": 2153, "fist": 2154, "gloves": 2155, "giant": 2156, "circular": 2157, "perched": 2158, "opening": 2159, "atop": 2160, "push": 2161, "policeman": 2162, "##walk": 2163, "directs": 2164, "traffic": 2165, "pedestrian": 2166, "chains": 2167, "##aw": 2168, "carving": 2169, "sha": 2170, "##ving": 2171, "saw": 2172, "reflective": 2173, "##c": 2174, "##top": 2175, "parking": 2176, "f": 2177, "##oa": 2178, "printed": 2179, "attempt": 2180, "dread": 2181, "##lock": 2182, "bowls": 2183, "liquid": 2184, "mug": 2185, "di": 2186, "oxford": 2187, "beer": 2188, "sipping": 2189, "lung": 2190, "irish": 2191, "##ter": 2192, "balcony": 2193, "flee": 2194, "bouncing": 2195, "housing": 2196, "hopping": 2197, "magazines": 2198, "##ial": 2199, "master": 2200, "fruit": 2201, "farmers": 2202, "connected": 2203, "bamboo": 2204, "father": 2205, "tossed": 2206, "monkey": 2207, "bars": 2208, "jungle": 2209, "gym": 2210, "mess": 2211, "##ily": 2212, "pasta": 2213, "spaghetti": 2214, "##chs": 2215, "##hun": 2216, "customer": 2217, "cones": 2218, "observe": 2219, "pads": 2220, "really": 2221, "closes": 2222, "wand": 2223, "speaks": 2224, "cup": 2225, "birthday": 2226, "web": 2227, "celebrate": 2228, "cake": 2229, "win": 2230, "##try": 2231, "bloom": 2232, "seating": 2233, "inflated": 2234, "parents": 2235, "skull": 2236, "motorcycles": 2237, "interesting": 2238, "formations": 2239, "shapes": 2240, "licking": 2241, "sniffing": 2242, "desk": 2243, "meeting": 2244, "modern": 2245, "decorated": 2246, "gathered": 2247, "clouds": 2248, "lots": 2249, "raising": 2250, "screaming": 2251, "##ting": 2252, "##gli": 2253, "ponytail": 2254, "paying": 2255, "lips": 2256, "tool": 2257, "rug": 2258, "carpet": 2259, "check": 2260, "##ered": 2261, "tugs": 2262, "tiger": 2263, "coloring": 2264, "##ho": 2265, "##und": 2266, "picnic": 2267, "hop": 2268, "##field": 2269, "barren": 2270, "bend": 2271, "gymnastics": 2272, "seas": 2273, "##hore": 2274, "shows": 2275, "fur": 2276, "staircase": 2277, "scaling": 2278, "##els": 2279, "studio": 2280, "tops": 2281, "clothed": 2282, "##ars": 2283, "slopes": 2284, "surrounding": 2285, "smaller": 2286, "tail": 2287, "batman": 2288, "makeup": 2289, "##woman": 2290, "streaked": 2291, "giving": 2292, "panel": 2293, "##turn": 2294, "celebrating": 2295, "##ret": 2296, "mustache": 2297, "conversation": 2298, "joy": 2299, "!": 2300, "name": 2301, "badge": 2302, "##men": 2303, "passenger": 2304, "transportation": 2305, "photographed": 2306, "sort": 2307, "per": 2308, "darkened": 2309, "sound": 2310, "cola": 2311, "##nder": 2312, "bowl": 2313, "##eers": 2314, "santa": 2315, "sofa": 2316, "claus": 2317, "stony": 2318, "##ock": 2319, "powder": 2320, "mirror": 2321, "leaning": 2322, "stairway": 2323, "rushing": 2324, "garbage": 2325, "can": 2326, "##able": 2327, "trash": 2328, "searching": 2329, "cans": 2330, "rum": 2331, "##ma": 2332, "##ging": 2333, "##can": 2334, "cardboard": 2335, "boxes": 2336, "our": 2337, "instrument": 2338, "musician": 2339, "##fo": 2340, "##ms": 2341, "&": 2342, "chatting": 2343, "tire": 2344, "rocking": 2345, "##hang": 2346, "deep": 2347, "phrase": 2348, "springs": 2349, "motion": 2350, "##front": 2351, "entrance": 2352, "jagged": 2353, "peach": 2354, "enjoys": 2355, "stomach": 2356, "wake": 2357, "read": 2358, "miniature": 2359, "pac": 2360, "##ifier": 2361, "sucking": 2362, "##down": 2363, "maneuver": 2364, "similarly": 2365, "execute": 2366, "combat": 2367, "facility": 2368, "soldier": 2369, "shaved": 2370, "pre": 2371, "punch": 2372, "temple": 2373, "##ters": 2374, "boulder": 2375, "approaches": 2376, "shower": 2377, "bath": 2378, "watering": 2379, "source": 2380, "bound": 2381, "museum": 2382, "cable": 2383, "##ey": 2384, "##tops": 2385, "arena": 2386, "##uit": 2387, "walker": 2388, "bent": 2389, "##ttle": 2390, "sloping": 2391, "dunes": 2392, "cong": 2393, "##gate": 2394, "##sca": 2395, "##pes": 2396, "keeping": 2397, "wrestle": 2398, "warm": 2399, "intersection": 2400, "bean": 2401, "aim": 2402, "blocked": 2403, "members": 2404, "teammate": 2405, "quarterback": 2406, "possession": 2407, "spring": 2408, "trimmed": 2409, "frog": 2410, "rise": 2411, "summit": 2412, "rails": 2413, "bust": 2414, "monk": 2415, "wrap": 2416, "robes": 2417, "tattoos": 2418, "bow": 2419, "plush": 2420, "picks": 2421, "airport": 2422, "overhead": 2423, "casino": 2424, "amusement": 2425, "arcade": 2426, "breeze": 2427, "blind": 2428, "##fold": 2429, "o": 2430, "written": 2431, "spanish": 2432, "##pe": 2433, "##ace": 2434, "burning": 2435, "handles": 2436, "##bar": 2437, "##row": 2438, "whose": 2439, "been": 2440, "ob": 2441, "##ring": 2442, "turning": 2443, "tiny": 2444, "necklace": 2445, "cliffs": 2446, "boulders": 2447, "dollar": 2448, "bill": 2449, "bills": 2450, "instruments": 2451, "##zzling": 2452, "bro": 2453, "anti": 2454, "breath": 2455, "underwater": 2456, "fingers": 2457, "smeared": 2458, "chocolate": 2459, "##lam": 2460, "act": 2461, "silly": 2462, "gas": 2463, "curve": 2464, "placed": 2465, "british": 2466, "union": 2467, "jack": 2468, "novelty": 2469, "backstroke": 2470, "en": 2471, "##gi": 2472, "##zer": 2473, "bunny": 2474, "attraction": 2475, "13": 2476, "defenders": 2477, "hurdles": 2478, "tents": 2479, "barrier": 2480, "fuzzy": 2481, "creature": 2482, "crab": 2483, "cups": 2484, "jo": 2485, "##gger": 2486, "marathon": 2487, "runners": 2488, "lane": 2489, "##bed": 2490, "rag": 2491, "dried": 2492, "##ca": 2493, "##ge": 2494, "containing": 2495, "cage": 2496, "crawling": 2497, "pieces": 2498, "gymnasium": 2499, "workout": 2500, "infant": 2501, "squat": 2502, "beverage": 2503, "##weight": 2504, "ya": 2505, "##wn": 2506, "##sp": 2507, "##eve": 2508, "la": 2509, "homeless": 2510, "winnie": 2511, "##oh": 2512, "sheet": 2513, "returning": 2514, "serve": 2515, "clay": 2516, "signing": 2517, "portrait": 2518, "##pad": 2519, "action": 2520, "created": 2521, "##aks": 2522, "boardwalk": 2523, "too": 2524, "village": 2525, "masks": 2526, "embrace": 2527, "acting": 2528, "ga": 2529, "##rb": 2530, "enjoying": 2531, "downhill": 2532, "cats": 2533, "weave": 2534, "pu": 2535, "##gs": 2536, "mohawk": 2537, "drums": 2538, "feathers": 2539, "drum": 2540, "reindeer": 2541, "ant": 2542, "##lers": 2543, "##ss": 2544, "##le": 2545, "def": 2546, "##lated": 2547, "traditional": 2548, "ge": 2549, "elaborate": 2550, "butterfly": 2551, "order": 2552, "posed": 2553, "fashion": 2554, "stretched": 2555, "higher": 2556, "jogging": 2557, "waterfront": 2558, "##rou": 2559, "winding": 2560, "pitch": 2561, "winds": 2562, "more": 2563, "rugby": 2564, "##la": 2565, "maneuvers": 2566, "link": 2567, "nap": 2568, "##nu": 2569, "##tu": 2570, "##kie": 2571, "##ki": 2572, "colourful": 2573, "##mobile": 2574, "blocking": 2575, "assistance": 2576, "grinning": 2577, "army": 2578, "bra": 2579, "afro": 2580, "ve": 2581, "fairy": 2582, "##wheel": 2583, "inner": 2584, "ding": 2585, "##hy": 2586, "monument": 2587, "pyramid": 2588, "directions": 2589, "mouths": 2590, "lies": 2591, "completely": 2592, "hide": 2593, "coaster": 2594, "flipped": 2595, "multiple": 2596, "##ro": 2597, "motorized": 2598, "wheelchair": 2599, "shelves": 2600, "shops": 2601, "ac": 2602, "distant": 2603, "##ik": 2604, "things": 2605, "##evic": 2606, "floral": 2607, "wagon": 2608, "dresser": 2609, "applying": 2610, "salon": 2611, "done": 2612, "sparse": 2613, "##ttered": 2614, "beads": 2615, "billboard": 2616, "##tails": 2617, "##po": 2618, "heart": 2619, "fancy": 2620, "robe": 2621, "frowning": 2622, "##pipe": 2623, "medieval": 2624, "similar": 2625, "##ent": 2626, "trumpet": 2627, "marching": 2628, "balancing": 2629, "helm": 2630, "tractor": 2631, "squirrel": 2632, "drift": 2633, "melting": 2634, "mound": 2635, "upset": 2636, "streaming": 2637, "heavy": 2638, "rowing": 2639, "boards": 2640, "ninja": 2641, "nude": 2642, "security": 2643, "series": 2644, "beam": 2645, "flex": 2646, "cheers": 2647, "dancer": 2648, "batter": 2649, "##play": 2650, "protects": 2651, "dusk": 2652, "emerges": 2653, "dan": 2654, "##del": 2655, "puff": 2656, "toe": 2657, "suspend": 2658, "spread": 2659, "tourists": 2660, "injured": 2661, "color": 2662, "fireworks": 2663, "glow": 2664, "sparkle": 2665, "##su": 2666, "sash": 2667, "china": 2668, "kisses": 2669, "ejected": 2670, "##te": 2671, "scar": 2672, "cows": 2673, "herd": 2674, "skeleton": 2675, "decoration": 2676, "receives": 2677, "thumb": 2678, "ticket": 2679, "attach": 2680, "dimly": 2681, "singing": 2682, "club": 2683, "guitarist": 2684, "microphone": 2685, "listening": 2686, "sip": 2687, "##stick": 2688, "overturned": 2689, "items": 2690, "ki": 2691, "##lt": 2692, "wi": 2693, "scottish": 2694, "burgundy": 2695, "own": 2696, "soda": 2697, "sunlight": 2698, "afghan": 2699, "patch": 2700, "shades": 2701, "shadow": 2702, "post": 2703, "teens": 2704, "prom": 2705, "fellow": 2706, "formal": 2707, "skinned": 2708, "lighter": 2709, "protect": 2710, "scratching": 2711, "##ies": 2712, "filling": 2713, "watery": 2714, "approach": 2715, "fights": 2716, "##cing": 2717, "boot": 2718, "casting": 2719, "playful": 2720, "heading": 2721, "labeled": 2722, "##sher": 2723, "construction": 2724, "drilling": 2725, "works": 2726, "active": 2727, "drill": 2728, "breed": 2729, "pi": 2730, "smooth": 2731, "iron": 2732, "hunched": 2733, "mans": 2734, "encouraging": 2735, "handed": 2736, "warehouse": 2737, "waterway": 2738, "wrinkled": 2739, "sight": 2740, "cookie": 2741, "cheered": 2742, "crowds": 2743, "complete": 2744, "finish": 2745, "##ches": 2746, "benches": 2747, "##dre": 2748, "##sse": 2749, "had": 2750, "bandage": 2751, "checked": 2752, "descending": 2753, "knees": 2754, "##back": 2755, "adorned": 2756, "intently": 2757, "travelling": 2758, "defensive": 2759, "position": 2760, "goalkeeper": 2761, "stripped": 2762, "extends": 2763, "skip": 2764, "id": 2765, "avoid": 2766, "located": 2767, "midst": 2768, "##au": 2769, "part": 2770, "overlook": 2771, "valley": 2772, "forested": 2773, "batsman": 2774, "misses": 2775, "unique": 2776, "ravine": 2777, "##eva": 2778, "bared": 2779, "period": 2780, "european": 2781, "trainer": 2782, "wrestling": 2783, "cotton": 2784, "candy": 2785, "cloud": 2786, "footballers": 2787, "victory": 2788, "baseman": 2789, "league": 2790, "rival": 2791, "second": 2792, "hangs": 2793, "##anne": 2794, "streets": 2795, "opponents": 2796, "progress": 2797, "bit": 2798, "laps": 2799, "##nta": 2800, "##unce": 2801, "males": 2802, "vintage": 2803, "admire": 2804, "fashioned": 2805, "admiring": 2806, "cowboys": 2807, "rodeo": 2808, "buck": 2809, "bulls": 2810, "props": 2811, "fisherman": 2812, "mist": 2813, "##water": 2814, "##ur": 2815, "pitching": 2816, "practices": 2817, "punches": 2818, "trains": 2819, "husky": 2820, "emerging": 2821, "##ts": 2822, "opens": 2823, "acc": 2824, "horseback": 2825, "moon": 2826, "cooking": 2827, "##lid": 2828, "dinosaur": 2829, "ex": 2830, "##hi": 2831, "lime": 2832, "##rg": 2833, "obedience": 2834, "concert": 2835, "workers": 2836, "cash": 2837, "register": 2838, "tips": 2839, "jar": 2840, "tip": 2841, "ka": 2842, "feather": 2843, "caution": 2844, "lo": 2845, "##lly": 2846, "cheek": 2847, "tracks": 2848, "pale": 2849, "casual": 2850, "growls": 2851, "tugging": 2852, "playhouse": 2853, "cabin": 2854, "focus": 2855, "shoot": 2856, "diner": 2857, "played": 2858, "8": 2859, "##ddle": 2860, "musical": 2861, "##gles": 2862, "mani": 2863, "##cured": 2864, "growling": 2865, "seem": 2866, "##berman": 2867, "##wig": 2868, "guards": 2869, "brings": 2870, "bum": 2871, "buried": 2872, "quietly": 2873, "appear": 2874, "##bble": 2875, "navigate": 2876, "himself": 2877, "greene": 2878, "cookies": 2879, "se": 2880, "##id": 2881, "social": 2882, "##izing": 2883, "w": 2884, "##his": 2885, "pickup": 2886, "##line": 2887, "vis": 2888, "tags": 2889, "creating": 2890, "##owing": 2891, "crash": 2892, "##ica": 2893, "demonstrates": 2894, "upright": 2895, "rear": 2896, "summer": 2897, "hitting": 2898, "canyon": 2899, "ceremony": 2900, "pauses": 2901, "##box": 2902, "alert": 2903, "##let": 2904, "skinny": 2905, "##am": 2906, "corridor": 2907, "jumper": 2908, "completes": 2909, "records": 2910, "bun": 2911, "##gee": 2912, "cord": 2913, "weeds": 2914, "we": 2915, "because": 2916, "rainbow": 2917, "##coat": 2918, "elevation": 2919, "juice": 2920, "fencing": 2921, "bundled": 2922, "characters": 2923, "itself": 2924, "everywhere": 2925, "gr": 2926, "waste": 2927, "##land": 2928, "pe": 2929, "pebbles": 2930, "rounding": 2931, "##ker": 2932, "artists": 2933, "stopped": 2934, "flooded": 2935, "monster": 2936, "hairs": 2937, "##tyle": 2938, "plaza": 2939, "square": 2940, "##ind": 2941, "training": 2942, "asphalt": 2943, "return": 2944, "sprint": 2945, "##yse": 2946, "casts": 2947, "si": 2948, "shrubs": 2949, "wiping": 2950, "belly": 2951, "##outs": 2952, "lush": 2953, "##oc": 2954, "countryside": 2955, "trek": 2956, "peaks": 2957, "##ailing": 2958, "teaching": 2959, "officers": 2960, "policemen": 2961, "law": 2962, "speaking": 2963, "formation": 2964, "hay": 2965, "pumpkin": 2966, "star": 2967, "routine": 2968, "skirts": 2969, "auditorium": 2970, "23": 2971, "barriers": 2972, "aisle": 2973, "praying": 2974, "hear": 2975, "bands": 2976, "##fin": 2977, "snack": 2978, "caps": 2979, "speeds": 2980, "early": 2981, "wrist": 2982, "##pass": 2983, "attention": 2984, "sar": 2985, "tab": 2986, "##by": 2987, "suns": 2988, "##had": 2989, "tropical": 2990, "resort": 2991, "ha": 2992, "dummy": 2993, "environment": 2994, "##ha": 2995, "human": 2996, "doll": 2997, "gu": 2998, "gesturing": 2999, "##nor": 3000, "driven": 3001, "##gr": 3002, "##oud": 3003, "e": 3004, "##ment": 3005, "geese": 3006, "lower": 3007, "##wei": 3008, "lick": 3009, "##xed": 3010, "wal": 3011, "sm": 3012, "extended": 3013, "##if": 3014, "scary": 3015, "##ust": 3016, "skills": 3017, "fair": 3018, "##gre": 3019, "reed": 3020, "upper": 3021, "driveway": 3022, "al": 3023, "##ot": 3024, "amid": 3025, "tray": 3026, "spilled": 3027, "##per": 3028, "sparks": 3029, "##il": 3030, "bearing": 3031, "gazes": 3032, "slalom": 3033, "pl": 3034, "interact": 3035, "##as": 3036, "bone": 3037, "grasp": 3038, "artificial": 3039, "hard": 3040, "te": 3041, "##ther": 3042, "flowing": 3043, "wrestler": 3044, "wrestlers": 3045, "bedroom": 3046, "bonnet": 3047, "arched": 3048, "pathway": 3049, "son": 3050, "determined": 3051, "expression": 3052, "mountainous": 3053, "tow": 3054, "becomes": 3055, "##kis": 3056, "broom": 3057, "forefront": 3058, "mom": 3059, "depicting": 3060, "jesus": 3061, "shrine": 3062, "carried": 3063, "velvet": 3064, "basement": 3065, "##ines": 3066, "song": 3067, "serious": 3068, "##bling": 3069, "coaching": 3070, "accent": 3071, "crust": 3072, "bread": 3073, "glide": 3074, "babies": 3075, "je": 3076, "lagoon": 3077, "##set": 3078, "fixing": 3079, "##ys": 3080, "##ooping": 3081, "beak": 3082, "vehicles": 3083, "newspapers": 3084, "##uce": 3085, "##igo": 3086, "tap": 3087, "community": 3088, "##ska": 3089, "mock": 3090, "earrings": 3091, "sees": 3092, "wires": 3093, "junk": 3094, "rubble": 3095, "courtyard": 3096, "slacks": 3097, "arabian": 3098, "offs": 3099, "##tage": 3100, "cycle": 3101, "shouting": 3102, "rim": 3103, "award": 3104, "baskets": 3105, "podium": 3106, "awaiting": 3107, "houses": 3108, "boston": 3109, "viewer": 3110, "shiny": 3111, "##kers": 3112, "current": 3113, "soft": 3114, "wilderness": 3115, "nature": 3116, "decorative": 3117, "spraying": 3118, "##rting": 3119, "telescope": 3120, "gun": 3121, "office": 3122, "tickets": 3123, "screams": 3124, "bows": 3125, "##ip": 3126, "groceries": 3127, "rows": 3128, "punt": 3129, "kicker": 3130, "scenic": 3131, "peaceful": 3132, "morning": 3133, "skyline": 3134, "lamp": 3135, "bracelet": 3136, "sleeves": 3137, "stall": 3138, "##pants": 3139, "shelter": 3140, "bu": 3141, "sack": 3142, "wr": 3143, "##ink": 3144, "shadows": 3145, "##cend": 3146, "dragging": 3147, "pirate": 3148, "hug": 3149, "vegetables": 3150, "##park": 3151, "##rai": 3152, "##sed": 3153, "doors": 3154, "spikes": 3155, "ambulance": 3156, "seattle": 3157, "observes": 3158, "hotel": 3159, "pee": 3160, "solitary": 3161, "moment": 3162, "flop": 3163, "tied": 3164, "cary": 3165, "##hat": 3166, "length": 3167, "coast": 3168, "dyed": 3169, "industrial": 3170, "terrace": 3171, "tumble": 3172, "##mo": 3173, "##bil": 3174, "await": 3175, "good": 3176, "reception": 3177, "reddish": 3178, "knife": 3179, "supports": 3180, "tails": 3181, "marks": 3182, "lipstick": 3183, "wa": 3184, "torso": 3185, "afternoon": 3186, "reflecting": 3187, "soldiers": 3188, "ignoring": 3189, "checks": 3190, "operating": 3191, "speaker": 3192, "##ul": 3193, "late": 3194, "secured": 3195, "footprints": 3196, "demonstrating": 3197, "massage": 3198, "scuba": 3199, "diver": 3200, "travel": 3201, "polar": 3202, "cargo": 3203, "##ws": 3204, "causing": 3205, "spiral": 3206, "dip": 3207, "sporting": 3208, "labrador": 3209, "called": 3210, "lounge": 3211, "##sle": 3212, "abandoned": 3213, "##hair": 3214, "##light": 3215, "working": 3216, "weird": 3217, "stripe": 3218, "glacier": 3219, "##ool": 3220, "contents": 3221, "##llo": 3222, "marked": 3223, "gathering": 3224, "computers": 3225, "teacher": 3226, "filmed": 3227, "lecture": 3228, "dotted": 3229, "dot": 3230, "##edge": 3231, "waist": 3232, "lobby": 3233, "lens": 3234, "rid": 3235, "blown": 3236, "huddled": 3237, "grin": 3238, "rom": 3239, "##w": 3240, "##lip": 3241, "adjusting": 3242, "incline": 3243, "crouched": 3244, "lie": 3245, "ho": 3246, "individual": 3247, "crown": 3248, "photographers": 3249, "when": 3250, "fest": 3251, "##ive": 3252, "lease": 3253, "curved": 3254, "aerodynamic": 3255, "worn": 3256, "wraps": 3257, "objects": 3258, "##fs": 3259, "packages": 3260, "traverse": 3261, "gothic": 3262, "##tem": 3263, "test": 3264, "performance": 3265, "bug": 3266, "za": 3267, "##ra": 3268, "strike": 3269, "goofy": 3270, "bigger": 3271, "passed": 3272, "##ft": 3273, "##ig": 3274, "halt": 3275, "sling": 3276, "rushes": 3277, "observing": 3278, "sole": 3279, "paints": 3280, "belt": 3281, "whom": 3282, "kicked": 3283, "curiously": 3284, "chewed": 3285, "vacant": 3286, "bricks": 3287, "laid": 3288, "milk": 3289, "##bone": 3290, "darker": 3291, "ti": 3292, "chi": 3293, "ic": 3294, "canon": 3295, "##ar": 3296, "##zy": 3297, "campground": 3298, "##ite": 3299, "blazing": 3300, "cobb": 3301, "than": 3302, "storm": 3303, "drain": 3304, "torn": 3305, "##ruff": 3306, "love": 3307, "language": 3308, "australian": 3309, "pets": 3310, "apartment": 3311, "fed": 3312, "##ora": 3313, "spiked": 3314, "cycling": 3315, "wrapping": 3316, "tin": 3317, "sh": 3318, "spreading": 3319, "flap": 3320, "tour": 3321, "##bell": 3322, "muscular": 3323, "quilt": 3324, "saber": 3325, "sword": 3326, "litter": 3327, "tired": 3328, "grown": 3329, "logs": 3330, "skipping": 3331, "swords": 3332, "height": 3333, "pillows": 3334, "furniture": 3335, "bananas": 3336, "##lide": 3337, "tumbling": 3338, "posts": 3339, "main": 3340, "sails": 3341, "sailing": 3342, "recoil": 3343, "##ster": 3344, "removing": 3345, "##rter": 3346, "piercing": 3347, "everyone": 3348, "sad": 3349, "calf": 3350, "##h": 3351, "labs": 3352, "size": 3353, "rap": 3354, "##pel": 3355, "##hel": 3356, "either": 3357, "nighttime": 3358, "battling": 3359, "examining": 3360, "soaked": 3361, "keeps": 3362, "##dy": 3363, "livestock": 3364, "accompanied": 3365, "telephone": 3366, "booths": 3367, "booth": 3368, "##ond": 3369, "brushes": 3370, "apron": 3371, "decorations": 3372, "##rts": 3373, "strapped": 3374, "dragged": 3375, "droplets": 3376, "ox": 3377, "performers": 3378, "ollie": 3379, "##ier": 3380, "##ci": 3381, "dodge": 3382, "gown": 3383, "##fer": 3384, "was": 3385, "fell": 3386, "##ood": 3387, "fort": 3388, "built": 3389, "mouthed": 3390, "bay": 3391, "parent": 3392, "suitcase": 3393, "themed": 3394, "spoke": 3395, "scratches": 3396, "##me": 3397, "kind": 3398, "cleaning": 3399, "lad": 3400, "container": 3401, "golf": 3402, "india": 3403, "##pre": 3404, "##ad": 3405, "##lines": 3406, "saddle": 3407, "##pen": 3408, "##les": 3409, "padded": 3410, "placing": 3411, "louis": 3412, "vu": 3413, "bathroom": 3414, "mechanical": 3415, "rabbit": 3416, "##ee": 3417, "##ation": 3418, "florida": 3419, "rally": 3420, "amp": 3421, "##hit": 3422, "conference": 3423, "battle": 3424, "sub": 3425, "##mer": 3426, "##ges": 3427, "missing": 3428, "tooth": 3429, "call": 3430, "tackles": 3431, "residential": 3432, "##ow": 3433, "fountains": 3434, "mexican": 3435, "needle": 3436, "aims": 3437, "##app": 3438, "engaged": 3439, "sox": 3440, "##ris": 3441, "railroad": 3442, "##fighter": 3443, "##uis": 3444, "engine": 3445, "puck": 3446, "##ering": 3447, "z": 3448, "##za": 3449, "ash": 3450, "descent": 3451, "western": 3452, "##ride": 3453, "youth": 3454, "rip": 3455, "prop": 3456, "revealing": 3457, "##pping": 3458, "52": 3459, "contra": 3460, "thick": 3461, "feeding": 3462, "eyebrows": 3463, "cigar": 3464, "marx": 3465, "equestrian": 3466, "##do": 3467, "theme": 3468, "raise": 3469, "##co": 3470, "phones": 3471, "crack": 3472, "##rc": 3473, "symbol": 3474, "change": 3475, "zoom": 3476, "led": 3477, "goose": 3478, "cuts": 3479, "fresh": 3480, "##hand": 3481, "##sters": 3482, "ming": 3483, "exercise": 3484, "hugged": 3485, "cooks": 3486, "nightclub": 3487, "form": 3488, "stacks": 3489, "washed": 3490, "apples": 3491, "retaining": 3492, "##ndo": 3493, "rower": 3494, "crew": 3495, "skyscraper": 3496, "stunts": 3497, "occupied": 3498, "cloak": 3499, "##nt": 3500, "nipple": 3501, "##lp": 3502, "bulldog": 3503, "movie": 3504, "member": 3505, "aquarium": 3506, "seal": 3507, "squeezing": 3508, "surround": 3509, "seems": 3510, "self": 3511, "cheeks": 3512, "##cript": 3513, "seats": 3514, "safari": 3515, "cracked": 3516, "clears": 3517, "ramps": 3518, "arch": 3519, "pasture": 3520, "dia": 3521, "rods": 3522, "begging": 3523, "##ten": 3524, "whispering": 3525, "gathers": 3526, "##tr": 3527, "##uck": 3528, "firefighters": 3529, "strips": 3530, "fields": 3531, "hilly": 3532, "attacking": 3533, "greyish": 3534, "mark": 3535, "kissed": 3536, "blues": 3537, "brothers": 3538, "imp": 3539, "gi": 3540, "striking": 3541, "fi": 3542, "##est": 3543, "coated": 3544, "happening": 3545, "tv": 3546, "bal": 3547, "##ck": 3548, "converse": 3549, "pursued": 3550, "##fr": 3551, "obstacles": 3552, "stride": 3553, "crocodile": 3554, "obama": 3555, "keep": 3556, "misty": 3557, "chalk": 3558, "shocked": 3559, "messenger": 3560, "ink": 3561, "trailing": 3562, "tread": 3563, "em": 3564, "images": 3565, "alligator": 3566, "bears": 3567, "app": 3568, "expressions": 3569, "concerned": 3570, "squinting": 3571, "stuff": 3572, "##ffs": 3573, "shoots": 3574, "bowler": 3575, "##ics": 3576, "swarm": 3577, "marble": 3578, "attack": 3579, "cook": 3580, "stove": 3581, "intense": 3582, "speeding": 3583, "pay": 3584, "##fully": 3585, "double": 3586, "captured": 3587, "domino": 3588, "pizza": 3589, "tower": 3590, "c": 3591, "licked": 3592, "fighters": 3593, "recently": 3594, "instructor": 3595, "drenched": 3596, "##pit": 3597, "electrical": 3598, "##pi": 3599, "fix": 3600, "games": 3601, "pattern": 3602, "hays": 3603, "##cks": 3604, "##tone": 3605, "island": 3606, "panting": 3607, "sacks": 3608, "h": 3609, "##tting": 3610, "u": 3611, "##ty": 3612, "trailer": 3613, "shed": 3614, "dramatically": 3615, "##nding": 3616, "purchasing": 3617, "lack": 3618, "hundreds": 3619, "defend": 3620, "portable": 3621, "toilets": 3622, "port": 3623, "##ties": 3624, "blossoms": 3625, "flowering": 3626, "bodies": 3627, "much": 3628, "exiting": 3629, "books": 3630, "blossom": 3631, "ou": 3632, "##ish": 3633, "topped": 3634, "loaded": 3635, "footballer": 3636, "punk": 3637, "wolf": 3638, "if": 3639, "spoon": 3640, "vast": 3641, "find": 3642, "mets": 3643, "##rm": 3644, "oriental": 3645, "skin": 3646, "outward": 3647, "pens": 3648, "downtown": 3649, "story": 3650, "pin": 3651, "ban": 3652, "contest": 3653, "awkwardly": 3654, "##igan": 3655, "standard": 3656, "##ara": 3657, "##unt": 3658, "stores": 3659, "nu": 3660, "forehead": 3661, "paperwork": 3662, "n": 3663, "pro": 3664, "america": 3665, "explosion": 3666, "dusty": 3667, "##gul": 3668, "##lica": 3669, "toilet": 3670, "drummer": 3671, "saxophone": 3672, "married": 3673, "7": 3674, "gift": 3675, "refrigerator": 3676, "firing": 3677, "##ating": 3678, "site": 3679, "swan": 3680, "menu": 3681, "waiter": 3682, "unhappy": 3683, "res": 3684, "##ant": 3685, "elevated": 3686, "##van": 3687, "evening": 3688, "signal": 3689, "say": 3690, "##ve": 3691, "cards": 3692, "vine": 3693, "harbor": 3694, "most": 3695, "plates": 3696, "ju": 3697, "alike": 3698, "letter": 3699, "##ied": 3700, "ducks": 3701, "##ear": 3702, "produce": 3703, "starring": 3704, "russell": 3705, "##dog": 3706, "frames": 3707, "wink": 3708, "ll": 3709, "touched": 3710, "##ue": 3711, "soap": 3712, "sponge": 3713, "displayed": 3714, "mi": 3715, "suited": 3716, "oversized": 3717, "presents": 3718, "scared": 3719, "apparatus": 3720, "ornate": 3721, "barr": 3722, "tiled": 3723, "carousel": 3724, "model": 3725, "biplane": 3726, "helicopter": 3727, "sizes": 3728, "purchase": 3729, "product": 3730, "pinned": 3731, "displays": 3732, "awards": 3733, "ragged": 3734, "obscured": 3735, "wielding": 3736, "##ei": 3737, "##gh": 3738, "feature": 3739, "otherwise": 3740, "collection": 3741, "garage": 3742, "howling": 3743, "royal": 3744, "loose": 3745, "groups": 3746, "huskies": 3747, "greenish": 3748, "##time": 3749, "pr": 3750, "##an": 3751, "##ill": 3752, "finished": 3753, "rises": 3754, "fiery": 3755, "windy": 3756, "##leg": 3757, "foothills": 3758, "##go": 3759, "##ri": 3760, "##gging": 3761, "##sk": 3762, "piles": 3763, "prairie": 3764, "numerous": 3765, "##uta": 3766, "clean": 3767, "sud": 3768, "pins": 3769, "##trip": 3770, "auto": 3771, "draft": 3772, "aiming": 3773, "defending": 3774, "pirates": 3775, "curled": 3776, "local": 3777, "swans": 3778, "messy": 3779, "else": 3780, "trim": 3781, "##ch": 3782, "huts": 3783, "bell": 3784, "grill": 3785, "buy": 3786, "astro": 3787, "roadway": 3788, "cries": 3789, "sumo": 3790, "sights": 3791, "tandem": 3792, "trophy": 3793, "winner": 3794, "assisting": 3795, "boundary": 3796, "ing": 3797, "ref": 3798, "devil": 3799, "insect": 3800, "protector": 3801, "washing": 3802, "americans": 3803, "confused": 3804, "op": 3805, "cheerleading": 3806, "east": 3807, "involving": 3808, "theater": 3809, "dome": 3810, "##unk": 3811, "spec": 3812, "##kled": 3813, "native": 3814, "prize": 3815, "embankment": 3816, "were": 3817, "establishment": 3818, "dragon": 3819, "god": 3820, "##tangle": 3821, "freshly": 3822, "cone": 3823, "roadside": 3824, "clap": 3825, "deer": 3826, "badminton": 3827, "dove": 3828, "##erina": 3829, "applies": 3830, "tia": 3831, "wig": 3832, "engulfed": 3833, "12": 3834, "offers": 3835, "brow": 3836, "tangled": 3837, "ultimate": 3838, "##dles": 3839, "balanced": 3840, "zoo": 3841, "dye": 3842, "laundry": 3843, "struggle": 3844, "entering": 3845, "newborn": 3846, "television": 3847, "prevent": 3848, "presses": 3849, "handgun": 3850, "emi": 3851, "pistol": 3852, "used": 3853, "protesters": 3854, "rush": 3855, "sorts": 3856, "shadowed": 3857, "will": 3858, "wheat": 3859, "flaming": 3860, "ballet": 3861, "draw": 3862, "accordion": 3863, "priest": 3864, "chili": 3865, "cheese": 3866, "escape": 3867, "tiles": 3868, "save": 3869, "steam": 3870, "keyboard": 3871, "feeds": 3872, "##lli": 3873, "##pop": 3874, "eggs": 3875, "easter": 3876, "noodles": 3877, "##ens": 3878, "##ils": 3879, "march": 3880, "turkey": 3881, "##ol": 3882, "hawaiian": 3883, "carts": 3884, "twin": 3885, "michael": 3886, "jackson": 3887, "mcdonald": 3888, "v": 3889, "hook": 3890, "##proof": 3891, "railway": 3892, "banks": 3893, "brows": 3894, "ornamental": 3895, "wash": 3896, "nets": 3897, "pierced": 3898, "metro": 3899, "penguins": 3900, "##ross": 3901, "zombie": 3902, "bouquet": 3903, "barn": 3904, "words": 3905, "##sh": 3906, "28": 3907, "entertain": 3908, "##red": 3909, "marking": 3910, "clover": 3911, "rocket": 3912, "thor": 3913, "##ugh": 3914, "squeeze": 3915, "downward": 3916, "wei": 3917, "pencil": 3918, "lou": 3919, "##nging": 3920, "rubs": 3921, "cutting": 3922, "views": 3923, "department": 3924, "french": 3925, "pigeon": 3926, "activity": 3927, "film": 3928, "##boy": 3929, "uno": 3930, "oppose": 3931, "clause": 3932, "odd": 3933, "limo": 3934, "limousine": 3935, "figures": 3936, "ipod": 3937, "potato": 3938, "chip": 3939, "unknown": 3940, "##sha": 3941, "##fire": 3942, "serving": 3943, "towed": 3944, "beat": 3945, "conversations": 3946, "yelling": 3947, "##name": 3948, "##tch": 3949, "us": 3950, "vegetation": 3951, "shots": 3952, "crank": 3953, "target": 3954, "protection": 3955, "fires": 3956, "marches": 3957, "hove": 3958, "hovering": 3959, "nursing": 3960, "political": 3961, "plains": 3962, "sunrise": 3963, "##ea": 3964, "fries": 3965, "hearts": 3966, "##tus": 3967, "##cker": 3968, "robot": 3969, "##vers": 3970, "guiding": 3971, "astrid": 3972, "guided": 3973, "wrists": 3974, "smart": 3975, "statues": 3976, "smelling": 3977, "examine": 3978, "littered": 3979, "ne": 3980, "bats": 3981, "ages": 3982, "##nch": 3983, "sparkling": 3984, "lighthouse": 3985, "##be": 3986, "##que": 3987, "missed": 3988, "again": 3989, "ok": 3990, "scrub": 3991, "participates": 3992, "sunshine": 3993, "marina": 3994, "##eer": 3995, "gazing": 3996, "##uf": 3997, "##fle": 3998, "##uts": 3999, "swung": 4000, "pride": 4001, "##guard": 4002, "burn": 4003, "speech": 4004, "armenian": 4005, "genocide": 4006, "priests": 4007, "mixed": 4008, "load": 4009, "submerged": 4010, "unison": 4011, "united": 4012, "states": 4013, "spin": 4014, "inspecting": 4015, "faded": 4016, "lego": 4017, "memorial": 4018, "fling": 4019, "notes": 4020, "copper": 4021, "leaped": 4022, "effort": 4023, "##yr": 4024, "leaned": 4025, "exhaust": 4026, "merchandise": 4027, "blankets": 4028, "guide": 4029, "mar": 4030, "waking": 4031, "squares": 4032, "leafs": 4033, "shell": 4034, "cooling": 4035, "stack": 4036, "magazine": 4037, "kangaroo": 4038, "stained": 4039, "tongues": 4040, "##ins": 4041, "rooftop": 4042, "shack": 4043, "bookstore": 4044, "investigate": 4045, "##ful": 4046, "streaks": 4047, "company": 4048, "##ption": 4049, "chained": 4050, "map": 4051, "lion": 4052, "scrambling": 4053, "chess": 4054, "hawk": 4055, "lip": 4056, "flung": 4057, "sucks": 4058, "dew": 4059, "meter": 4060, "locking": 4061, "region": 4062, "heron": 4063, "snap": 4064, "##mage": 4065, "laden": 4066, "cas": 4067, "evil": 4068, "punching": 4069, "interviews": 4070, "tide": 4071, "##tor": 4072, "##ade": 4073, "syrup": 4074, "interviewed": 4075, "am": 4076, "##use": 4077, "mr": 4078, "letters": 4079, "fully": 4080, "crate": 4081, "picket": 4082, "rifle": 4083, "##ance": 4084, "library": 4085, "substance": 4086, "arrow": 4087, "patiently": 4088, "extremely": 4089, "drawn": 4090, "##ders": 4091, "cricketer": 4092, "search": 4093, "condoms": 4094, "ci": 4095, "extravagant": 4096, "bmw": 4097, "eagle": 4098, "join": 4099, "25": 4100, "bee": 4101, "mascot": 4102, "build": 4103, "roses": 4104, "feed": 4105, "tilted": 4106, "##ger": 4107, "corners": 4108, "renaissance": 4109, "directly": 4110, "washington": 4111, "melted": 4112, "persons": 4113, "radio": 4114, "flyer": 4115, "##at": 4116, "ste": 4117, "favorite": 4118, "hamburger": 4119, "19": 4120, "hydra": 4121, "umpire": 4122, "bowling": 4123, "barely": 4124, "observed": 4125, "real": 4126, "##acker": 4127, "ghost": 4128, "##bus": 4129, "products": 4130, "##ben": 4131, "cara": 4132, "fry": 4133, "lobster": 4134, "present": 4135, "es": 4136, "##cala": 4137, "##ff": 4138, "##cer": 4139, "cannon": 4140, "cent": 4141, "##ipe": 4142, "rugged": 4143, "bitten": 4144, "shake": 4145, "spotlight": 4146, "binoculars": 4147, "hospital": 4148, "perspective": 4149, "horn": 4150, "judge": 4151, "rover": 4152, "serves": 4153, "opened": 4154, "adjust": 4155, "ruins": 4156, "goth": 4157, "rolled": 4158, "##ama": 4159, "completing": 4160, "derby": 4161, "advertisements": 4162, "medals": 4163, "classroom": 4164, "mounds": 4165, "##ions": 4166, "care": 4167, "ami": 4168, "mattress": 4169, "d": 4170, "veil": 4171, "rocker": 4172, "lanterns": 4173, "peanut": 4174, "butter": 4175, "acoustic": 4176, "gig": 4177, "##olo": 4178, "parrot": 4179, "##oe": 4180, "##ows": 4181, "bounced": 4182, "##boats": 4183, "angels": 4184, "smack": 4185, "lodge": 4186, "barber": 4187, "straining": 4188, "lavender": 4189, "##horn": 4190, "nurses": 4191, "loading": 4192, "lemon": 4193, "ringing": 4194, "hopper": 4195, "nails": 4196, "trade": 4197, "poem": 4198, "offering": 4199, "##cho": 4200, "bout": 4201, "served": 4202, "cigarettes": 4203, "dumb": 4204, "wharf": 4205, "recorder": 4206, "tagged": 4207, "text": 4208, "##sco": 4209, "cry": 4210, "fighter": 4211, "controller": 4212, "hell": 4213, "spell": 4214, "##ja": 4215, "those": 4216, "officials": 4217, "comic": 4218, "hen": 4219, "bernard": 4220, "muslim": 4221, "##lift": 4222, "sewing": 4223, "bunk": 4224, "tunic": 4225, "demonstration": 4226, "highland": 4227, "africans": 4228, "graduation": 4229, "##og": 4230, "looked": 4231, "bullet": 4232, "disguise": 4233, "dolphins": 4234, "shipping": 4235, "sink": 4236, "barrels": 4237, "lizards": 4238, "donkey": 4239, "mule": 4240, "beating": 4241, "ken": 4242, "##nel": 4243, "##sur": 4244, "whales": 4245, "einstein": 4246, "patrick": 4247, "bases": 4248, "pharmacy": 4249, "##he": 4250}