{"[PAD]": 0, "[CLS]": 1, "[UNK]": 2, "[SEP]": 3, "a": 4, "black": 5, "dog": 6, "is": 7, "running": 8, "after": 9, "white": 10, "in": 11, "the": 12, "snow": 13, ".": 14, "chasing": 15, "brown": 16, "through": 17, "two": 18, "dogs": 19, "chase": 20, "each": 21, "other": 22, "across": 23, "snowy": 24, "ground": 25, "play": 26, "together": 27, "low": 28, "lying": 29, "body": 30, "of": 31, "water": 32, "little": 33, "baby": 34, "plays": 35, "cr": 36, "##o": 37, "##quet": 38, "girl": 39, "next": 40, "to": 41, "truck": 42, "child": 43, "playing": 44, "##quette": 45, "by": 46, "kid": 47, "front": 48, "car": 49, "with": 50, "put": 51, "and": 52, "ball": 53, "boy": 54, "hammer": 55, "beside": 56, "has": 57, "something": 58, "hot": 59, "pink": 60, "its": 61, "mouth": 62, "holding": 63, "hat": 64, "shirt": 65, "carrying": 66, "while": 67, "walking": 68, "looking": 69, "forward": 70, "along": 71, "beach": 72, "wearing": 73, "collar": 74, "walks": 75, "on": 76, "sand": 77, "near": 78, "large": 79, "ocean": 80, "red": 81, "fr": 82, "##is": 83, "##bee": 84, "standing": 85, "sandy": 86, "drops": 87, "disc": 88, "flying": 89, "air": 90, "catching": 91, "dropping": 92, "cyclist": 93, "helmet": 94, "riding": 95, "pavement": 96, "bike": 97, "street": 98, "person": 99, ",": 100, "down": 101, "woman": 102, "wears": 103, "blue": 104, "as": 105, "she": 106, "goes": 107, "for": 108, "ride": 109, "shade": 110, "road": 111, "man": 112, "dressed": 113, "purple": 114, "banda": 115, "##nna": 116, "smiles": 117, "at": 118, "people": 119, "watching": 120, "him": 121, "leather": 122, "cha": 123, "##ps": 124, "chain": 125, "##mail": 126, "cod": 127, "##piece": 128, "poses": 129, "camera": 130, "stands": 131, "##lo": 132, "##oke": 133, "##rs": 134, "there": 135, "men": 136, "t": 137, "-": 138, "woodland": 139, "runs": 140, "some": 141, "trees": 142, "young": 143, "dancing": 144, "around": 145, "short": 146, "sleeve": 147, "##d": 148, "jeans": 149, "stops": 150, "smile": 151, "dress": 152, "back": 153, "grenade": 154, "smiling": 155, "braid": 156, "##s": 157, "looks": 158, "green": 159, "skier": 160, "yellow": 161, "jacket": 162, "airborne": 163, "above": 164, "mountains": 165, "jumps": 166, "high": 167, "view": 168, "skiing": 169, "fluorescent": 170, "very": 171, "it": 172, "though": 173, "he": 174, "so": 175, "##mon": 176, "##e": 177, "doing": 178, "ski": 179, "jump": 180, "pants": 181, "appears": 182, "almost": 183, "fly": 184, "into": 185, "sky": 186, "photographer": 187, "over": 188, "hills": 189, "video": 190, "##ta": 191, "##ping": 192, "natural": 193, "landscape": 194, "out": 195, "rolling": 196, "trip": 197, "##od": 198, "lady": 199, "her": 200, "set": 201, "up": 202, "field": 203, "record": 204, "bunch": 205, "girls": 206, "cheer": 207, "##leader": 208, "outfits": 209, "group": 210, "parade": 211, "perform": 212, "many": 213, "walk": 214, "uniforms": 215, "boat": 216, "canopy": 217, "floating": 218, "calm": 219, "waters": 220, "roof": 221, "middle": 222, "solitude": 223, "floats": 224, "lake": 225, "catches": 226, "mid": 227, "##air": 228, "terri": 229, "##er": 230, "mix": 231, "leaping": 232, "object": 233, "old": 234, "sitting": 235, "an": 236, "advertisement": 237, "asian": 238, "waiting": 239, "underground": 240, "train": 241, "stop": 242, "sits": 243, "transit": 244, "station": 245, "##lit": 246, "subway": 247, "umbrella": 248, "##qu": 249, "##os": 250, "commercial": 251, "wall": 252, "blond": 253, "trail": 254, "side": 255, "metal": 256, "fence": 257, "coat": 258, "rural": 259, "flute": 260, "park": 261, "##a": 262, "past": 263, "enclosed": 264, "area": 265, "family": 266, "nine": 267, "including": 268, "four": 269, "children": 270, "pose": 271, "brick": 272, "fireplace": 273, "mantle": 274, "christmas": 275, "tree": 276, "posing": 277, "happy": 278, "couples": 279, "kids": 280, "picture": 281, "sweater": 282, "pointing": 283, "one": 284, "arms": 285, "outstretched": 286, "finger": 287, "pointed": 288, "another": 289, "stares": 290, "from": 291, "behind": 292, "who": 293, "his": 294, "look": 295, "toward": 296, "points": 297, "index": 298, "hallway": 299, "warily": 300, "investigating": 301, "medium": 302, "sized": 303, "small": 304, "larger": 305, "grassy": 306, "big": 307, "tall": 308, "grass": 309, "three": 310, "flowers": 311, "stuffed": 312, "kitten": 313, "garden": 314, "among": 315, "wild": 316, "##flower": 317, "pal": 318, "##ying": 319, "toy": 320, "cat": 321, "long": 322, "raises": 323, "eyebrow": 324, "stripes": 325, "handicap": 326, "signs": 327, "african": 328, "american": 329, "building": 330, "handicapped": 331, "space": 332, "orange": 333, "backwards": 334, "wet": 335, "stick": 336, "shore": 337, "bounds": 338, "splash": 339, "##ing": 340, "off": 341, "paws": 342, "carries": 343, "are": 344, "racing": 345, "ra": 346, "##ct": 347, "##rac": 348, "##k": 349, "race": 350, "track": 351, "greyhound": 352, "muzzle": 353, "inside": 354, "curb": 355, "rail": 356, "##ed": 357, "dirt": 358, "run": 359, "baseball": 360, "pitcher": 361, "shelton": 362, "throws": 363, "player": 364, "glove": 365, "pitches": 366, "male": 367, "sports": 368, "outfit": 369, "tries": 370, "catch": 371, "wade": 372, "rock": 373, "shallow": 374, "reach": 375, "##cr": 376, "##op": 377, "light": 378, "paw": 379, "about": 380, "ready": 381, "exit": 382, "swim": 383, "5": 384, "school": 385, "cross": 386, "takes": 387, "outside": 388, "photograph": 389, "taking": 390, "pictures": 391, "women": 392, "stand": 393, "jean": 394, "hand": 395, "chest": 396, "bruised": 397, "nose": 398, "writing": 399, "hands": 400, "rental": 401, "store": 402, "denim": 403, "book": 404, "##case": 405, "full": 406, "videos": 407, "house": 408, "sunglasses": 409, "flower": 410, "sit": 411, "nearby": 412, "left": 413, "adults": 414, "perhaps": 415, "display": 416, "case": 417, "digital": 418, "glass": 419, "sides": 420, "holds": 421, "sideways": 422, "arm": 423, "##board": 424, "ramp": 425, "performing": 426, "trick": 427, "making": 428, "icy": 429, "mountain": 430, "climb": 431, "##ers": 432, "line": 433, "their": 434, "way": 435, "covered": 436, "background": 437, "facing": 438, "jumping": 439, "hoop": 440, "ring": 441, "using": 442, "laptop": 443, "cell": 444, "##phone": 445, "against": 446, "use": 447, "electronics": 448, "bench": 449, "engage": 450, "electronic": 451, "devices": 452, "races": 453, "number": 454, "6": 455, "six": 456, "tan": 457, "gold": 458, "mu": 459, "##x": 460, "##zzled": 461, "edge": 462, "cliff": 463, "scouts": 464, "rest": 465, "bluff": 466, "overlooking": 467, "top": 468, "couple": 469, "wooded": 470, "them": 471, "lined": 472, "friends": 473, "stroll": 474, "forest": 475, "path": 476, "woods": 477, "sponsored": 478, "ri": 479, "##wal": 480, "smoking": 481, "tires": 482, "drives": 483, "rain": 484, "driving": 485, "headlights": 486, "advertising": 487, "rainy": 488, "lights": 489, "raceway": 490, "bearded": 491, "whilst": 492, "bicycle": 493, "bicycles": 494, "hair": 495, "gives": 496, "peace": 497, "sign": 498, "cap": 499, "flashing": 500, "crowd": 501, "waving": 502, "flags": 503, "passing": 504, "under": 505, "bridge": 506, "or": 507, "banners": 508, "gets": 509, "pull": 510, "chair": 511, "meal": 512, "table": 513, "cafe": 514, "restaurant": 515, "eater": 516, "##y": 517, "getting": 518, "grabs": 519, "seat": 520, "rack": 521, "##et": 522, "round": 523, "handle": 524, "##es": 525, "string": 526, "##less": 527, "backyard": 528, "lawn": 529, "clothing": 530, "yard": 531, "toys": 532, "enjoy": 533, "themselves": 534, "wind": 535, "blows": 536, "tram": 537, "##pol": 538, "##ine": 539, "blonde": 540, "##wi": 541, "##rl": 542, "bi": 543, "##cy": 544, "##cl": 545, "##ists": 546, "between": 547, "wire": 548, "fences": 549, "cyclists": 550, "country": 551, "electricity": 552, "p": 553, "##yl": 554, "##on": 555, "desert": 556, "biker": 557, "dry": 558, "land": 559, "climbing": 560, "steep": 561, "hill": 562, "climbs": 563, "great": 564, "dane": 565, "spins": 566, "merry": 567, "go": 568, "##ern": 569, "watch": 570, "fathers": 571, "spinning": 572, "playground": 573, "that": 574, "skirt": 575, "golden": 576, "retrieve": 577, "##r": 578, "excitedly": 579, "greeting": 580, "towards": 581, "away": 582, "greet": 583, "doo": 584, "##or": 585, "##way": 586, "bus": 587, "onward": 588, "door": 589, "vehicle": 590, "glancing": 591, "window": 592, "trolley": 593, "passengers": 594, "peaking": 595, "peering": 596, "hiding": 597, "peeking": 598, "striped": 599, "peek": 600, "hold": 601, "drinks": 602, "point": 603, "bottles": 604, "several": 605, "this": 606, "photo": 607, "beers": 608, "border": 609, "col": 610, "##lie": 611, "bed": 612, "tennis": 613, "peak": 614, "rocks": 615, "##cap": 616, "##ped": 617, "hike": 618, "following": 619, "surrounded": 620, "distance": 621, "smoke": 622, "comes": 623, "starts": 624, "broken": 625, "during": 626, "badly": 627, "racetrack": 628, "bull": 629, "branded": 630, "leaves": 631, "bags": 632, "i": 633, "##gl": 634, "##oo": 635, "cave": 636, "luggage": 637, "overnight": 638, "stay": 639, "backpack": 640, "piled": 641, "ice": 642, "visible": 643, "hole": 644, "starting": 645, "steps": 646, "##rky": 647, "putting": 648, "legs": 649, "pond": 650, "busy": 651, "city": 652, "silhouette": 653, "buildings": 654, "crowded": 655, "th": 656, "##re": 657, "shot": 658, "turned": 659, "chases": 660, "threw": 661, "interacting": 662, "opposite": 663, "direction": 664, "fetch": 665, "also": 666, "outdoors": 667, "cameras": 668, "third": 669, "river": 670, "backdrop": 671, "face": 672, "rope": 673, "swimming": 674, "creek": 675, "rot": 676, "##weiler": 677, "playfully": 678, "rolls": 679, "int": 680, "chewing": 681, "resting": 682, "game": 683, "elderly": 684, "straw": 685, "alone": 686, "haired": 687, "gray": 688, "dark": 689, "beard": 690, "guitar": 691, "attractive": 692, "halo": 693, "head": 694, "ceiling": 695, "wide": 696, "drink": 697, "upward": 698, "reading": 699, "paperback": 700, "elder": 701, "scarf": 702, "older": 703, "reads": 704, "consulting": 705, "mo": 706, "##to": 707, "##cross": 708, "spill": 709, "zip": 710, "slips": 711, "motorcycle": 712, "tight": 713, "turn": 714, "motor": 715, "##bi": 716, "##ke": 717, "bright": 718, "someone": 719, "fall": 720, "rider": 721, "accident": 722, "cot": 723, "sleeping": 724, "makeshift": 725, "beds": 726, "hanging": 727, "##ide": 728, "skate": 729, "hopes": 730, "landing": 731, "teenage": 732, "flipping": 733, "tricks": 734, "colored": 735, "protest": 736, "banner": 737, "staring": 738, "religious": 739, "sidewalk": 740, "poster": 741, "word": 742, "ma": 743, "##mbo": 744, "\"": 745, "image": 746, "teddy": 747, "bear": 748, "showing": 749, "hum": 750, "stool": 751, "trying": 752, "sell": 753, "animals": 754, "selling": 755, "various": 756, "vendor": 757, "sells": 758, "'": 759, "s": 760, "visitors": 761, "##fl": 762, "##atable": 763, "guy": 764, "navy": 765, "shorts": 766, "pool": 767, "football": 768, "trunks": 769, "strange": 770, "antics": 771, "diving": 772, "plastic": 773, "slide": 774, "portion": 775, "equipment": 776, "shaded": 777, "fire": 778, "baton": 779, "day": 780, "jug": 781, "##gling": 782, "flames": 783, "bubbles": 784, "float": 785, "popping": 786, "woven": 787, "##bo": 788, "##gga": 789, "##n": 790, "knit": 791, "##ted": 792, "right": 793, "po": 794, "##of": 795, "wool": 796, "##en": 797, "shoes": 798, "sandals": 799, "tug": 800, "war": 801, "pulling": 802, "end": 803, "##t": 804, "surf": 805, "wave": 806, "surfer": 807, "surfing": 808, "attempting": 809, "sea": 810, "huge": 811, "sunset": 812, "rides": 813, "biking": 814, "##kes": 815, "muddy": 816, "slope": 817, "crossing": 818, "buses": 819, "##wr": 820, "##ap": 821, "hurrying": 822, "heads": 823, "night": 824, "phone": 825, "talks": 826, "pile": 827, "##pile": 828, "stunt": 829, "soccer": 830, "uniform": 831, "kick": 832, "match": 833, "watches": 834, "knee": 835, "female": 836, "break": 837, "driver": 838, "wheel": 839, "thumbs": 840, "before": 841, "polka": 842, "dots": 843, "boots": 844, "hu": 845, "##rri": 846, "##dly": 847, "hip": 848, "kim": 849, "##ono": 850, "purse": 851, "followed": 852, "redhead": 853, "pedestrians": 854, "mean": 855, "##der": 856, "casually": 857, "barefoot": 858, "cute": 859, "puppy": 860, "chew": 861, "fluffy": 862, "rings": 863, "dock": 864, "laughing": 865, "bucket": 866, "pier": 867, "beneath": 868, "dances": 869, "room": 870, "balloons": 871, "floor": 872, "socks": 873, "wooden": 874, "strewn": 875, "strings": 876, "con": 877, "##fe": 878, "##tti": 879, "##jean": 880, "wood": 881, "mother": 882, "chinatown": 883, "both": 884, "aw": 885, "##ning": 886, "ledge": 887, "scales": 888, "tent": 889, "being": 890, "enter": 891, "fishing": 892, "setting": 893, "hut": 894, "iced": 895, "tar": 896, "##p": 897, "structure": 898, "surface": 899, "few": 900, "foam": 901, "statue": 902, "liberty": 903, "hats": 904, "statute": 905, "crowns": 906, "take": 907, "photos": 908, "new": 909, "york": 910, "get": 911, "taken": 912, "fight": 913, "das": 914, "##chu": 915, "##nds": 916, "wiener": 917, "jersey": 918, "leaps": 919, "dive": 920, "going": 921, "begin": 922, "sheer": 923, "pretty": 924, "flat": 925, "rocky": 926, "card": 927, "know": 928, "what": 929, "?": 930, "pic": 931, "##ure": 932, "says": 933, "referring": 934, "periods": 935, "they": 936, "bathing": 937, "suit": 938, "sp": 939, "##rin": 940, "##kle": 941, "sliding": 942, "pad": 943, "##dling": 944, "kidd": 945, "##ie": 946, "lone": 947, "flies": 948, "leaf": 949, "pulled": 950, "shovel": 951, "scoop": 952, "##ward": 953, "distorted": 954, "open": 955, "ends": 956, "bottom": 957, "just": 958, "reaching": 959, "lands": 960, "reaches": 961, "piano": 962, "sings": 963, "harpsichord": 964, "preparing": 965, "sing": 966, "singer": 967, "pianist": 968, "music": 969, "bare": 970, "teeth": 971, "tongue": 972, "expanse": 973, "curly": 974, "violin": 975, "bo": 976, "transparent": 977, "walls": 978, "posters": 979, "rubbing": 980, "chin": 981, "be": 982, "cover": 983, "teenager": 984, "struggles": 985, "carry": 986, "pig": 987, "##gy": 988, "##ng": 989, "paved": 990, "covering": 991, "arab": 992, "tu": 993, "##rba": 994, "facial": 995, "palestinian": 996, "style": 997, "##car": 998, "##f": 999, "grey": 1000, "bird": 1001, "majestic": 1002, "##ally": 1003, "waves": 1004, "roll": 1005, "crane": 1006, "upon": 1007, "onto": 1008, "pole": 1009, "swings": 1010, "silver": 1011, "swinging": 1012, "bounce": 1013, "leo": 1014, "##tar": 1015, "st": 1016, "##rad": 1017, "##dle": 1018, "split": 1019, "hello": 1020, "kitty": 1021, "does": 1022, "leg": 1023, "splits": 1024, "leans": 1025, "board": 1026, "platform": 1027, "eating": 1028, "seeds": 1029, "eats": 1030, "sun": 1031, "clinging": 1032, "stone": 1033, "friend": 1034, "helps": 1035, "help": 1036, "learning": 1037, "how": 1038, "helping": 1039, "sweatshirt": 1040, "competitor": 1041, "not": 1042, "far": 1043, "racer": 1044, "slightly": 1045, "competition": 1046, "circuit": 1047, "cheering": 1048, "grabbing": 1049, "ankle": 1050, "oklahoma": 1051, "score": 1052, "fans": 1053, "##zone": 1054, "athlete": 1055, "performs": 1056, "launching": 1057, "herself": 1058, "bar": 1059, "vault": 1060, "upside": 1061, "attempts": 1062, "feet": 1063, "do": 1064, "gap": 1065, "flip": 1066, "blocks": 1067, "concrete": 1068, "carefully": 1069, "crosses": 1070, "reflection": 1071, "cinder": 1072, "##block": 1073, "caught": 1074, "pajamas": 1075, "hall": 1076, "hardwood": 1077, "floors": 1078, "brig": 1079, "##hly": 1080, "lit": 1081, "todd": 1082, "##ler": 1083, "chairs": 1084, "##l": 1085, "folding": 1086, "row": 1087, "talking": 1088, "spotted": 1089, "fast": 1090, "seated": 1091, "stadium": 1092, "event": 1093, "fill": 1094, "packed": 1095, "indoor": 1096, "dig": 1097, "duck": 1098, "pet": 1099, "chased": 1100, "parachute": 1101, "lifting": 1102, "attached": 1103, "para": 1104, "##sai": 1105, "suspended": 1106, "sunny": 1107, "gliding": 1108, "backed": 1109, "##boarding": 1110, "slides": 1111, "railing": 1112, "shine": 1113, "skating": 1114, "stair": 1115, "sl": 1116, "##ii": 1117, "##ding": 1118, "stairs": 1119, "have": 1120, "pillow": 1121, "having": 1122, "neck": 1123, "graz": 1124, "flight": 1125, "boats": 1126, "boxing": 1127, "boxers": 1128, "fighting": 1129, "box": 1130, "faces": 1131, "funny": 1132, "makes": 1133, "glasses": 1134, "rusty": 1135, "bark": 1136, "barking": 1137, "hose": 1138, "pouring": 1139, "drinking": 1140, "which": 1141, "sq": 1142, "##ui": 1143, "##rted": 1144, "##wear": 1145, "wings": 1146, "##suit": 1147, "lacrosse": 1148, "players": 1149, "struggling": 1150, "control": 1151, "team": 1152, "breaks": 1153, "hit": 1154, "hockey": 1155, "type": 1156, "sport": 1157, "like": 1158, "sticks": 1159, "guys": 1160, "all": 1161, "saying": 1162, "free": 1163, "dinner": 1164, "cement": 1165, "prepares": 1166, "wipe": 1167, "##out": 1168, "hugging": 1169, "embracing": 1170, "hugs": 1171, "dun": 1172, "##ks": 1173, "basketball": 1174, "make": 1175, "basket": 1176, "goal": 1177, "##king": 1178, "grinding": 1179, "steel": 1180, "guard": 1181, "##rail": 1182, "homemade": 1183, "made": 1184, "piece": 1185, "log": 1186, "leap": 1187, "crystal": 1188, "clear": 1189, "wrapped": 1190, "tape": 1191, "painters": 1192, "brother": 1193, "superman": 1194, "cape": 1195, "cast": 1196, "material": 1197, "super": 1198, "heroes": 1199, "airplane": 1200, "plane": 1201, "jet": 1202, "runway": 1203, "propeller": 1204, "pilot": 1205, "seen": 1206, "windows": 1207, "##fi": 1208, "##rst": 1209, "digging": 1210, "poking": 1211, "brush": 1212, "greenhouse": 1213, "gardening": 1214, "tools": 1215, "tend": 1216, "work": 1217, "rake": 1218, "unfinished": 1219, "fishes": 1220, "rod": 1221, "jett": 1222, "boys": 1223, "living": 1224, "shown": 1225, "wear": 1226, "shirts": 1227, "computer": 1228, "monitor": 1229, "eat": 1230, "cream": 1231, "dolly": 1232, "adult": 1233, "sat": 1234, "ate": 1235, "world": 1236, "college": 1237, "tackled": 1238, "jerseys": 1239, "tackle": 1240, "tack": 1241, "##ling": 1242, "uniformed": 1243, "try": 1244, "fan": 1245, "devotion": 1246, "painting": 1247, "paint": 1248, "within": 1249, "nfl": 1250, "painted": 1251, "b": 1252, "##lea": 1253, "##chers": 1254, "3": 1255, "dal": 1256, "##mat": 1257, "##ians": 1258, "spots": 1259, "palm": 1260, "route": 1261, "stretch": 1262, "signage": 1263, "displaying": 1264, "paintings": 1265, "framed": 1266, "artwork": 1267, "sale": 1268, "des": 1269, "##olate": 1270, "fallen": 1271, "dead": 1272, "church": 1273, "##ist": 1274, "aerial": 1275, "sc": 1276, "##oot": 1277, "suburban": 1278, "neighborhood": 1279, "center": 1280, "roller": 1281, "##bla": 1282, "##des": 1283, "narrow": 1284, "blade": 1285, "grind": 1286, "participate": 1287, "martial": 1288, "arts": 1289, "tournament": 1290, "mat": 1291, "protective": 1292, "gear": 1293, "spa": 1294, "helmets": 1295, "##rring": 1296, "##boards": 1297, "skater": 1298, "##ds": 1299, "tee": 1300, "##shi": 1301, "##rt": 1302, "flag": 1303, "##band": 1304, "vest": 1305, "indoors": 1306, "bari": 1307, "foot": 1308, "indian": 1309, "crossed": 1310, "folded": 1311, "ethnic": 1312, "outdoor": 1313, "market": 1314, "shining": 1315, "graffiti": 1316, "plank": 1317, "no": 1318, "viewing": 1319, "hung": 1320, "gallery": 1321, "naked": 1322, "individuals": 1323, "chinese": 1324, "ladies": 1325, "bank": 1326, "locker": 1327, "slim": 1328, "##weed": 1329, "coming": 1330, "moss": 1331, "descends": 1332, "hiking": 1333, "bringing": 1334, "gravel": 1335, "amidst": 1336, "autumn": 1337, "others": 1338, "laugh": 1339, "touching": 1340, "laughs": 1341, "fun": 1342, "blow": 1343, "##up": 1344, "##rus": 1345, "##hing": 1346, "wadi": 1347, "bald": 1348, "drag": 1349, "queens": 1350, "dresses": 1351, "matching": 1352, "jewelry": 1353, "clothes": 1354, "formally": 1355, "jumped": 1356, "sniff": 1357, "##mt": 1358, "walkway": 1359, "moving": 1360, "bump": 1361, "furry": 1362, "doorway": 1363, "leading": 1364, "plants": 1365, "patio": 1366, "pot": 1367, "hairy": 1368, "step": 1369, "formula": 1370, "cars": 1371, "leave": 1372, "start": 1373, "twilight": 1374, "beginning": 1375, "see": 1376, "racers": 1377, "harness": 1378, "pack": 1379, "grouped": 1380, "winter": 1381, "soaking": 1382, "terrain": 1383, "clutching": 1384, "turquoise": 1385, "thin": 1386, "markings": 1387, "ears": 1388, "##rsa": 1389, "##ult": 1390, "throwing": 1391, "tossing": 1392, "touches": 1393, "challenging": 1394, "teams": 1395, "quickly": 1396, "meadow": 1397, "crashing": 1398, "follows": 1399, "laying": 1400, "power": 1401, "lines": 1402, "unusual": 1403, "shaped": 1404, "stump": 1405, "teammates": 1406, "referee": 1407, "breaking": 1408, "intervening": 1409, "artist": 1410, "canvas": 1411, "overall": 1412, "ease": 1413, "##all": 1414, "##brush": 1415, "shady": 1416, "travels": 1417, "heavily": 1418, "fangs": 1419, "german": 1420, "shepherd": 1421, "leash": 1422, "somebody": 1423, "falling": 1424, "backward": 1425, "urban": 1426, "partially": 1427, "band": 1428, "##mates": 1429, "guitars": 1430, "suits": 1431, "electric": 1432, "musicians": 1433, "associated": 1434, "curtain": 1435, "blouse": 1436, "##olic": 1437, "pan": 1438, "mini": 1439, "heels": 1440, "pumps": 1441, "lap": 1442, "steer": 1443, "suv": 1444, "drivers": 1445, "jeep": 1446, "technical": 1447, "supported": 1448, "cords": 1449, "abs": 1450, "##eil": 1451, "rep": 1452, "##elling": 1453, "flock": 1454, "birds": 1455, "disturbed": 1456, "mural": 1457, "pigeons": 1458, "bride": 1459, "escorted": 1460, "newly": 1461, "wed": 1462, "wife": 1463, "held": 1464, "pastor": 1465, "##wed": 1466, "polo": 1467, "hides": 1468, "overgrown": 1469, "bushes": 1470, "grasses": 1471, "boogie": 1472, "cushion": 1473, "spider": 1474, "patterned": 1475, "base": 1476, "close": 1477, "incoming": 1478, "dirty": 1479, "crashes": 1480, "beyond": 1481, "relaxing": 1482, "trench": 1483, "waits": 1484, "sculpture": 1485, "bikini": 1486, "pulls": 1487, "taller": 1488, "eye": 1489, "##glass": 1490, "skaters": 1491, "rink": 1492, "scenery": 1493, "mount": 1494, "##ian": 1495, "netting": 1496, "filled": 1497, "##un": 1498, "castle": 1499, "##rop": 1500, "students": 1501, "campus": 1502, "quad": 1503, "but": 1504, "falls": 1505, "practice": 1506, "throat": 1507, "asking": 1508, "daughter": 1509, "nice": 1510, "pretending": 1511, "choke": 1512, "joking": 1513, "biting": 1514, "limb": 1515, "branch": 1516, "g": 1517, "##na": 1518, "##wing": 1519, "plant": 1520, "un": 1521, "##cut": 1522, "barrel": 1523, "snarl": 1524, "poles": 1525, "seven": 1526, "teenagers": 1527, "wait": 1528, "gate": 1529, "shit": 1530, "puts": 1531, "gesture": 1532, "raised": 1533, "illustrated": 1534, "newspaper": 1535, "kitchen": 1536, "owner": 1537, "re": 1538, "##tri": 1539, "##eving": 1540, "dining": 1541, "paper": 1542, "tile": 1543, "sharing": 1544, "kiss": 1545, "cold": 1546, "kissing": 1547, "taxi": 1548, "passes": 1549, "teen": 1550, "coats": 1551, "corrugated": 1552, "tunnel": 1553, "halloween": 1554, "eyes": 1555, "crawl": 1556, "beautiful": 1557, "tube": 1558, "leads": 1559, "caste": 1560, "##rol": 1561, "branding": 1562, "trucks": 1563, "five": 1564, "22": 1565, "29": 1566, "obstacle": 1567, "course": 1568, "elephant": 1569, "draped": 1570, "fabric": 1571, "trunk": 1572, "colorful": 1573, "dr": 1574, "foliage": 1575, "swimmers": 1576, "move": 1577, "mud": 1578, "puddle": 1579, "nearly": 1580, "identical": 1581, "dump": 1582, "pour": 1583, "poured": 1584, "treated": 1585, "couch": 1586, "bea": 1587, "##ded": 1588, "disk": 1589, "##eed": 1590, "show": 1591, "support": 1592, "state": 1593, "##far": 1594, "##m": 1595, "com": 1596, "wheeled": 1597, "##ples": 1598, "tri": 1599, "##cycle": 1600, "pedal": 1601, "wheeler": 1602, "2": 1603, "wheels": 1604, "carnival": 1605, "worker": 1606, "animal": 1607, "prizes": 1608, "amongst": 1609, "shelf": 1610, "##bank": 1611, ";": 1612, "camps": 1613, "camping": 1614, "patches": 1615, "supplies": 1616, "ditch": 1617, "##pa": 1618, "##int": 1619, "##ings": 1620, "pain": 1621, "##ib": 1622, "##bles": 1623, "north": 1624, "carolina": 1625, "moves": 1626, "tea": 1627, "coffee": 1628, "gather": 1629, "beverages": 1630, "home": 1631, "outs": 1632, "##tre": 1633, "##ache": 1634, "begins": 1635, "spreads": 1636, "x": 1637, "plaid": 1638, "print": 1639, "touchdown": 1640, "rescue": 1641, "follow": 1642, "lead": 1643, "canoe": 1644, "still": 1645, "drifting": 1646, "fat": 1647, "traveling": 1648, "stepping": 1649, "shaggy": 1650, "fore": 1651, "##ground": 1652, "inline": 1653, "fish": 1654, "##eye": 1655, "public": 1656, "##lch": 1657, "stirring": 1658, "dust": 1659, "sooner": 1660, "lifted": 1661, "##ates": 1662, "same": 1663, "athletes": 1664, "mann": 1665, "##quin": 1666, "waterfall": 1667, "overlooked": 1668, "massive": 1669, "waterfalls": 1670, "guns": 1671, "pa": 1672, "##vill": 1673, "##ion": 1674, "shooting": 1675, "beige": 1676, "athletic": 1677, "coach": 1678, "nike": 1679, "whistle": 1680, "##gle": 1681, "bass": 1682, "hound": 1683, "costumes": 1684, "frame": 1685, "unseen": 1686, "multi": 1687, "cultural": 1688, "excited": 1689, "audience": 1690, "parallel": 1691, "kicks": 1692, "opponent": 1693, "compete": 1694, "karate": 1695, "belts": 1696, "clapping": 1697, "ran": 1698, "flexible": 1699, "lift": 1700, "shakes": 1701, "shaking": 1702, "hood": 1703, "horse": 1704, "jockey": 1705, "performer": 1706, "lecturer": 1707, "stage": 1708, "30": 1709, "spectators": 1710, "onstage": 1711, "presentation": 1712, "mixing": 1713, "aged": 1714, "dj": 1715, "deck": 1716, "pretend": 1717, "younger": 1718, "tables": 1719, "acts": 1720, "meet": 1721, "##ggles": 1722, "swimmer": 1723, "competitive": 1724, "apple": 1725, "place": 1726, "bag": 1727, "hips": 1728, "ta": 1729, "##tto": 1730, "tattoo": 1731, "clown": 1732, "##di": 1733, "##ver": 1734, "safely": 1735, "landed": 1736, "glider": 1737, "practicing": 1738, "craft": 1739, "exercises": 1740, "roughly": 1741, "clearing": 1742, "rough": 1743, "manner": 1744, "extreme": 1745, "carr": 1746, "uses": 1747, "cam": 1748, "##cor": 1749, "films": 1750, "enjoyable": 1751, "toss": 1752, "empty": 1753, "bottle": 1754, "dug": 1755, "agile": 1756, "closely": 1757, "volleyball": 1758, "talk": 1759, "marketplace": 1760, "ascending": 1761, "horizontal": 1762, "##pha": 1763, "##rd": 1764, "pair": 1765, "##child": 1766, "##ren": 1767, "spray": 1768, "fountain": 1769, "splashed": 1770, "sprayed": 1771, "manual": 1772, "backside": 1773, "screen": 1774, "life": 1775, "##ic": 1776, "##cle": 1777, "riverside": 1778, "steamboat": 1779, "lining": 1780, "coastline": 1781, "location": 1782, "ferry": 1783, "shoreline": 1784, "docked": 1785, "exploring": 1786, "##boat": 1787, "dolphin": 1788, "poke": 1789, "shoe": 1790, "horseshoe": 1791, "corner": 1792, "shoulders": 1793, "these": 1794, "noses": 1795, "numbers": 1796, "dune": 1797, "brilliant": 1798, "weathered": 1799, "##craft": 1800, "swing": 1801, "strikes": 1802, "med": 1803, "##ata": 1804, "##tive": 1805, "gestures": 1806, "meditation": 1807, "##al": 1808, "closed": 1809, "##odle": 1810, "sticking": 1811, "butt": 1812, "inspect": 1813, "tattooed": 1814, "gentleman": 1815, "half": 1816, "relax": 1817, "adobe": 1818, "where": 1819, "propped": 1820, "parked": 1821, "slip": 1822, "##pers": 1823, "rec": 1824, "##lining": 1825, "kneeling": 1826, "ridge": 1827, "ancient": 1828, "muscle": 1829, "pass": 1830, "fit": 1831, "##ls": 1832, "tourist": 1833, "floppy": 1834, "emerald": 1835, "span": 1836, "##iel": 1837, "shaw": 1838, "cigarette": 1839, "sweat": 1840, "blanket": 1841, "hooded": 1842, "pipe": 1843, "burned": 1844, "incense": 1845, "##nd": 1846, "bubble": 1847, "machine": 1848, "bites": 1849, "blowing": 1850, "chunk": 1851, "mit": 1852, "##tens": 1853, "throw": 1854, "##ball": 1855, "grins": 1856, "cl": 1857, "##ump": 1858, "paddle": 1859, "vertical": 1860, "approaching": 1861, "backs": 1862, "varied": 1863, "activities": 1864, "tank": 1865, "official": 1866, "marsh": 1867, "##cky": 1868, "mostly": 1869, "swamp": 1870, "rubber": 1871, "chickens": 1872, "chicken": 1873, "eight": 1874, "balls": 1875, "bottoms": 1876, "pushes": 1877, "brunette": 1878, "pushing": 1879, "carriage": 1880, "females": 1881, "senior": 1882, "fl": 1883, "##aring": 1884, "hurdle": 1885, "lay": 1886, "hang": 1887, "##man": 1888, "paisley": 1889, "yu": 1890, "##ong": 1891, "figure": 1892, "costume": 1893, "party": 1894, "blood": 1895, "branches": 1896, "europe": 1897, "bends": 1898, "alley": 1899, "pairs": 1900, "domed": 1901, "cowboy": 1902, "lass": 1903, "##rling": 1904, "baggage": 1905, "cart": 1906, "(": 1907, ")": 1908, "carrier": 1909, "shopping": 1910, "apart": 1911, "camouflage": 1912, "varying": 1913, "breeds": 1914, "##edd": 1915, "##led": 1916, "town": 1917, "strap": 1918, "bite": 1919, "snapping": 1920, "strip": 1921, "steering": 1922, "ship": 1923, "na": 1924, "##vi": 1925, "##gating": 1926, "partly": 1927, "cloudy": 1928, "skies": 1929, "sailor": 1930, "sail": 1931, "ali": 1932, "##gat": 1933, "puppet": 1934, "camp": 1935, "van": 1936, "rv": 1937, "peer": 1938, "snake": 1939, "lean": 1940, "different": 1941, "tub": 1942, "bin": 1943, "##color": 1944, "pen": 1945, "enclosure": 1946, "pit": 1947, "shares": 1948, "cut": 1949, "balloon": 1950, "dolls": 1951, "drawings": 1952, "only": 1953, "underwear": 1954, "marker": 1955, "write": 1956, "drawing": 1957, "fellows": 1958, "markers": 1959, "toll": 1960, "safety": 1961, "pipes": 1962, "flu": 1963, "##ore": 1964, "##cent": 1965, "neon": 1966, "ribbons": 1967, "won": 1968, "competing": 1969, "kill": 1970, "weir": 1971, "##mei": 1972, "##ner": 1973, "covers": 1974, "##in": 1975, "##j": 1976, "##g": 1977, "stones": 1978, "##ign": 1979, "##zan": 1980, "##ce": 1981, "welcome": 1982, "you": 1983, "hi": 1984, "viz": 1985, "jackets": 1986, "carved": 1987, "proud": 1988, "returns": 1989, "horses": 1990, "pony": 1991, "stare": 1992, "crumbling": 1993, "structures": 1994, "reflections": 1995, "fei": 1996, "##ld": 1997, "shop": 1998, "mall": 1999, "food": 2000, "court": 2001, "art": 2002, "false": 2003, "turns": 2004, "ladder": 2005, "reached": 2006, "mesh": 2007, "headed": 2008, "pops": 2009, "##icle": 2010, "frozen": 2011, "treat": 2012, "eyed": 2013, "curious": 2014, "adventures": 2015, "ahead": 2016, "gymnast": 2017, "ropes": 2018, "aid": 2019, "balance": 2020, "dangling": 2021, "straps": 2022, "kicking": 2023, "miami": 2024, "university": 2025, "graf": 2026, "##itt": 2027, "##i": 2028, "scene": 2029, "classic": 2030, "well": 2031, "kept": 2032, "thrown": 2033, "downwards": 2034, "dancers": 2035, "##keeping": 2036, "dance": 2037, "prepare": 2038, "waitress": 2039, "chef": 2040, "hillside": 2041, "##bri": 2042, "##de": 2043, "kay": 2044, "##aker": 2045, "##aking": 2046, "##ak": 2047, "raging": 2048, "strong": 2049, "currents": 2050, "raft": 2051, "spot": 2052, "neither": 2053, "metallic": 2054, "warmly": 2055, "blur": 2056, "##ry": 2057, "##stand": 2058, "tag": 2059, "touch": 2060, "riders": 2061, "shoulder": 2062, "farm": 2063, "sheep": 2064, "rallies": 2065, "lamb": 2066, "goat": 2067, "places": 2068, "slab": 2069, "twisting": 2070, "sk": 2071, "##ew": 2072, "sucker": 2073, "hollywood": 2074, "stars": 2075, "examines": 2076, "fame": 2077, "br": 2078, "##idal": 2079, "wedding": 2080, "ten": 2081, "groom": 2082, "except": 2083, "##sm": 2084, "##sma": 2085, "##ids": 2086, "launch": 2087, "cane": 2088, "lays": 2089, "rests": 2090, "stream": 2091, "dad": 2092, "quarter": 2093, "bush": 2094, "brownish": 2095, "photographs": 2096, "canal": 2097, "#": 2098, "numbered": 2099, "prisoner": 2100, "sexy": 2101, "police": 2102, "officer": 2103, "cop": 2104, "jail": 2105, "##bird": 2106, "fake": 2107, "##iers": 2108, "mask": 2109, "tie": 2110, "handing": 2111, "papers": 2112, "button": 2113, "masked": 2114, "business": 2115, "attire": 2116, "fa": 2117, "##wk": 2118, "straight": 2119, "profile": 2120, "blurred": 2121, "hero": 2122, "vans": 2123, "funky": 2124, "raced": 2125, "pop": 2126, "weather": 2127, "happily": 2128, "poised": 2129, "candles": 2130, "candle": 2131, "lighting": 2132, "cemetery": 2133, "elephants": 2134, "ridden": 2135, "colors": 2136, "##ns": 2137, "eastern": 2138, "give": 2139, "chu": 2140, "##bby": 2141, "buff": 2142, "weights": 2143, "remote": 2144, "peers": 2145, "bulky": 2146, "device": 2147, "grip": 2148, "note": 2149, "writes": 2150, "notebook": 2151, "rather": 2152, "sw": 2153, "##ves": 2154, "speed": 2155, "sharp": 2156, "crouch": 2157, "rounds": 2158, "##mx": 2159, "trials": 2160, "without": 2161, "boarding": 2162, "gaze": 2163, "tr": 2164, "##otti": 2165, "stuck": 2166, "trails": 2167, "pine": 2168, "4": 2169, "atv": 2170, "drive": 2171, "net": 2172, "beijing": 2173, "olympics": 2174, "logo": 2175, "##mp": 2176, "soaring": 2177, "underneath": 2178, "##tes": 2179, "batting": 2180, "military": 2181, "speak": 2182, "whites": 2183, "crying": 2184, "comfort": 2185, "bending": 2186, "assist": 2187, "checking": 2188, "da": 2189, "##pp": 2190, "walked": 2191, "owners": 2192, "hits": 2193, "bat": 2194, "catcher": 2195, "japanese": 2196, "aqua": 2197, "pocket": 2198, "##tan": 2199, "sheets": 2200, "lab": 2201, "##long": 2202, "farmland": 2203, "kn": 2204, "##oll": 2205, "below": 2206, "##phones": 2207, "cu": 2208, "##vy": 2209, "overs": 2210, "##hir": 2211, "chrome": 2212, "elevator": 2213, "kite": 2214, "capped": 2215, "range": 2216, "flown": 2217, "##house": 2218, "##roll": 2219, "camel": 2220, "##ots": 2221, "ag": 2222, "##ility": 2223, "lifts": 2224, "launches": 2225, "asleep": 2226, "machines": 2227, "##ou": 2228, "##ched": 2229, "atm": 2230, "withdrawing": 2231, "money": 2232, "##won": 2233, "sleeps": 2234, "maroon": 2235, "##mation": 2236, "hind": 2237, ":": 2238, "bakery": 2239, "counter": 2240, "buying": 2241, "##bag": 2242, "lunch": 2243, "grocery": 2244, "##otted": 2245, "corn": 2246, "co": 2247, "##b": 2248, "ni": 2249, "##bbling": 2250, "ear": 2251, "listen": 2252, "mobile": 2253, "rising": 2254, "come": 2255, "sets": 2256, "horizon": 2257, "cricket": 2258, "participating": 2259, "opposing": 2260, "##oop": 2261, "pick": 2262, "##mel": 2263, "picking": 2264, "##ons": 2265, "stretches": 2266, "mats": 2267, "circle": 2268, "brightly": 2269, "##tang": 2270, "##ular": 2271, "teaches": 2272, "yoga": 2273, "festival": 2274, "learn": 2275, "stretching": 2276, "upwards": 2277, "legged": 2278, "stock": 2279, "plain": 2280, "semi": 2281, "pup": 2282, "##pies": 2283, "slam": 2284, "coconut": 2285, "interested": 2286, "##ota": 2287, "##tion": 2288, "grab": 2289, "don": 2290, "##ut": 2291, "inter": 2292, "##tub": 2293, "##xes": 2294, "ties": 2295, "share": 2296, "toast": 2297, "alongside": 2298, "sister": 2299, "mickey": 2300, "mouse": 2301, "ad": 2302, "##orn": 2303, "angle": 2304, "non": 2305, "professional": 2306, "hd": 2307, "plate": 2308, "guarding": 2309, "runner": 2310, "##hc": 2311, "softball": 2312, "block": 2313, "k": 2314, "##hak": 2315, "wine": 2316, "dim": 2317, "shrub": 2318, "##bery": 2319, "##im": 2320, "##med": 2321, "column": 2322, "belongings": 2323, "pillar": 2324, "time": 2325, "lot": 2326, "twigs": 2327, "weimar": 2328, "##ane": 2329, "fatigue": 2330, "chop": 2331, "##py": 2332, "rapids": 2333, "turbulent": 2334, "reacts": 2335, "loops": 2336, "earth": 2337, "loop": 2338, "aero": 2339, "##bat": 2340, "coiled": 2341, "leaving": 2342, "single": 2343, "file": 2344, "exhibit": 2345, "archway": 2346, "class": 2347, "arches": 2348, "columns": 2349, "##tra": 2350, "barbed": 2351, "porch": 2352, "##ly": 2353, "clad": 2354, "cow": 2355, "##girl": 2356, "##wire": 2357, "scan": 2358, "##ti": 2359, "threatening": 2360, "ca": 2361, "##vor": 2362, "special": 2363, "contestant": 2364, "dish": 2365, "towel": 2366, "##tow": 2367, "##el": 2368, "cloth": 2369, "boxer": 2370, "##bu": 2371, "##ll": 2372, "gallo": 2373, "crest": 2374, "##hill": 2375, "watched": 2376, "sneakers": 2377, "highway": 2378, "##iver": 2379, "hilltop": 2380, "item": 2381, "ribbon": 2382, "elegant": 2383, "horns": 2384, "heard": 2385, "goats": 2386, "cluster": 2387, "amused": 2388, "surprised": 2389, "exciting": 2390, "frost": 2391, "fog": 2392, "##akes": 2393, "pushed": 2394, "mothers": 2395, "##ert": 2396, "##ia": 2397, "first": 2398, "pausing": 2399, "bikes": 2400, "chat": 2401, "fist": 2402, "gloves": 2403, "incredible": 2404, "hulk": 2405, "giant": 2406, "even": 2407, "raining": 2408, "circular": 2409, "perched": 2410, "mushroom": 2411, "opening": 2412, "atop": 2413, "push": 2414, "policeman": 2415, "##walk": 2416, "directs": 2417, "traffic": 2418, "pedestrian": 2419, "chains": 2420, "##aw": 2421, "carving": 2422, "sha": 2423, "##ving": 2424, "saw": 2425, "reflective": 2426, "reflected": 2427, "layer": 2428, "##c": 2429, "##top": 2430, "parking": 2431, "f": 2432, "##oa": 2433, "colt": 2434, "printed": 2435, "attempt": 2436, "convert": 2437, "dread": 2438, "##lock": 2439, "bowls": 2440, "wicket": 2441, "twenties": 2442, "liquid": 2443, "mug": 2444, "di": 2445, "##stor": 2446, "oxford": 2447, "beer": 2448, "sipping": 2449, "lung": 2450, "irish": 2451, "##ter": 2452, "flashlight": 2453, "cruise": 2454, "balcony": 2455, "controlling": 2456, "flee": 2457, "bouncing": 2458, "housing": 2459, "complex": 2460, "hopping": 2461, "magazines": 2462, "##ial": 2463, "master": 2464, "fruit": 2465, "farmers": 2466, "connected": 2467, "bamboo": 2468, "crime": 2469, "father": 2470, "oceans": 2471, "tossed": 2472, "monkey": 2473, "bars": 2474, "jungle": 2475, "gym": 2476, "mess": 2477, "##ily": 2478, "pasta": 2479, "spaghetti": 2480, "##chs": 2481, "##hun": 2482, "customer": 2483, "sites": 2484, "customers": 2485, "cones": 2486, "observe": 2487, "pads": 2488, "really": 2489, "closes": 2490, "wand": 2491, "cramped": 2492, "speaks": 2493, "cup": 2494, "celebrates": 2495, "birthday": 2496, "via": 2497, "web": 2498, "celebrate": 2499, "cake": 2500, "win": 2501, "##try": 2502, "bloom": 2503, "seating": 2504, "inflated": 2505, "parents": 2506, "collapsing": 2507, "skull": 2508, "motorcycles": 2509, "interesting": 2510, "formations": 2511, "shapes": 2512, "licking": 2513, "explores": 2514, "sniffing": 2515, "desk": 2516, "meeting": 2517, "modern": 2518, "decorated": 2519, "gathered": 2520, "clouds": 2521, "lots": 2522, "raising": 2523, "screaming": 2524, "##ting": 2525, "##skie": 2526, "##gli": 2527, "ponytail": 2528, "paying": 2529, "##uting": 2530, "lips": 2531, "handled": 2532, "tool": 2533, "elbow": 2534, "rug": 2535, "carpet": 2536, "check": 2537, "##ered": 2538, "tugs": 2539, "tiger": 2540, "coloring": 2541, "##ho": 2542, "##und": 2543, "fisher": 2544, "intensely": 2545, "picnic": 2546, "hop": 2547, "##field": 2548, "barren": 2549, "bend": 2550, "gymnastics": 2551, "deeper": 2552, "seas": 2553, "##hore": 2554, "shows": 2555, "flexibility": 2556, "fur": 2557, "staircase": 2558, "scaling": 2559, "##els": 2560, "studio": 2561, "tops": 2562, "clothed": 2563, "##ars": 2564, "slopes": 2565, "surrounding": 2566, "smaller": 2567, "tail": 2568, "joker": 2569, "batman": 2570, "makeup": 2571, "##woman": 2572, "streaked": 2573, "giving": 2574, "panel": 2575, "##turn": 2576, "celebrating": 2577, "##ret": 2578, "mustache": 2579, "conversation": 2580, "su": 2581, "##pr": 2582, "##ised": 2583, "finds": 2584, "joy": 2585, "sloppy": 2586, "!": 2587, "name": 2588, "badge": 2589, "flick": 2590, "##bber": 2591, "##men": 2592, "passenger": 2593, "transportation": 2594, "system": 2595, "chris": 2596, "##mas": 2597, "photographed": 2598, "sort": 2599, "per": 2600, "##for": 2601, "rust": 2602, "darkened": 2603, "seller": 2604, "sound": 2605, "cola": 2606, "##nder": 2607, "mad": 2608, "bowl": 2609, "strain": 2610, "##eers": 2611, "santa": 2612, "sofa": 2613, "claus": 2614, "fig": 2615, "##uri": 2616, "##ne": 2617, "stony": 2618, "##ock": 2619, "powder": 2620, "mirror": 2621, "faced": 2622, "swirl": 2623, "leaning": 2624, "stairway": 2625, "rushing": 2626, "addressing": 2627, "diverse": 2628, "garbage": 2629, "can": 2630, "add": 2631, "collects": 2632, "##able": 2633, "trash": 2634, "searching": 2635, "cans": 2636, "rum": 2637, "##ma": 2638, "##ging": 2639, "##can": 2640, "cardboard": 2641, "boxes": 2642, "our": 2643, "##door": 2644, "instrument": 2645, "musician": 2646, "##fo": 2647, "##ms": 2648, "&": 2649, "chatting": 2650, "tire": 2651, "rocking": 2652, "##hang": 2653, "deep": 2654, "phrase": 2655, "inscribed": 2656, "springs": 2657, "motion": 2658, "##front": 2659, "entrance": 2660, "sands": 2661, "jagged": 2662, "peach": 2663, "enjoys": 2664, "stomach": 2665, "wake": 2666, "read": 2667, "bog": 2668, "miniature": 2669, "pac": 2670, "##ifier": 2671, "sucking": 2672, "##ky": 2673, "##down": 2674, "maneuver": 2675, "similarly": 2676, "marine": 2677, "execute": 2678, "combat": 2679, "facility": 2680, "soldier": 2681, "shaved": 2682, "pre": 2683, "##sten": 2684, "punch": 2685, "temple": 2686, "##ters": 2687, "boulder": 2688, "spotting": 2689, "approaches": 2690, "worried": 2691, "keel": 2692, "shower": 2693, "bath": 2694, "watering": 2695, "source": 2696, "bound": 2697, "museum": 2698, "cable": 2699, "##ey": 2700, "rape": 2701, "##tops": 2702, "arena": 2703, "##uit": 2704, "walker": 2705, "bent": 2706, "slant": 2707, "##ttle": 2708, "sloping": 2709, "dunes": 2710, "cong": 2711, "##gate": 2712, "pristine": 2713, "##sca": 2714, "##pes": 2715, "concentrating": 2716, "keeping": 2717, "wrestle": 2718, "##ipes": 2719, "warm": 2720, "intersection": 2721, "bean": 2722, "aim": 2723, "blocked": 2724, "members": 2725, "cocked": 2726, "advantage": 2727, "teammate": 2728, "quarterback": 2729, "gain": 2730, "possession": 2731, "##overs": 2732, "spring": 2733, "trimmed": 2734, "frog": 2735, "rise": 2736, "descend": 2737, "summit": 2738, "rails": 2739, "tb": 2740, "bust": 2741, "buddha": 2742, "monk": 2743, "wrap": 2744, "robes": 2745, "tattoos": 2746, "bow": 2747, "plush": 2748, "picks": 2749, "las": 2750, "vegas": 2751, "airport": 2752, "overhead": 2753, "casino": 2754, "amusement": 2755, "arcade": 2756, "breeze": 2757, "blind": 2758, "##fold": 2759, "sal": 2760, "##var": 2761, "o": 2762, "planet": 2763, "written": 2764, "spanish": 2765, "##pe": 2766, "##ace": 2767, "burning": 2768, "handles": 2769, "##bar": 2770, "##row": 2771, "barrow": 2772, "whose": 2773, "been": 2774, "replaced": 2775, "ob": 2776, "##scu": 2777, "##ring": 2778, "turning": 2779, "tiny": 2780, "necklace": 2781, "cliffs": 2782, "boulders": 2783, "dollar": 2784, "bill": 2785, "bills": 2786, "instruments": 2787, "##zzling": 2788, "bro": 2789, "##ach": 2790, "pearls": 2791, "anti": 2792, "##qua": 2793, "pearl": 2794, "breath": 2795, "underwater": 2796, "emerge": 2797, "fingers": 2798, "smeared": 2799, "chocolate": 2800, "pudding": 2801, "##lam": 2802, "snakes": 2803, "##kin": 2804, "act": 2805, "silly": 2806, "gas": 2807, "curve": 2808, "preoccupied": 2809, "##chai": 2810, "placed": 2811, "british": 2812, "union": 2813, "jack": 2814, "novelty": 2815, "backstroke": 2816, "tones": 2817, "en": 2818, "##gi": 2819, "##zer": 2820, "bunny": 2821, "attraction": 2822, "13": 2823, "defenders": 2824, "hurdles": 2825, "tents": 2826, "barrier": 2827, "fuzzy": 2828, "creature": 2829, "crab": 2830, "ceramic": 2831, "cups": 2832, "jo": 2833, "##gger": 2834, "marathon": 2835, "runners": 2836, "lane": 2837, "##bed": 2838, "rag": 2839, "dried": 2840, "##ca": 2841, "##ge": 2842, "containing": 2843, "cage": 2844, "crawling": 2845, "##ggy": 2846, "pieces": 2847, "gymnasium": 2848, "workout": 2849, "infant": 2850, "squat": 2851, "beverage": 2852, "robust": 2853, "##weight": 2854, "ya": 2855, "##wn": 2856, "##sp": 2857, "##ect": 2858, "##acle": 2859, "##eve": 2860, "la": 2861, "##ven": 2862, "##dar": 2863, "homeless": 2864, "winnie": 2865, "##oh": 2866, "sheet": 2867, "returning": 2868, "serve": 2869, "clay": 2870, "signing": 2871, "portrait": 2872, "##pad": 2873, "##lage": 2874, "action": 2875, "created": 2876, "##aks": 2877, "boardwalk": 2878, "##eme": 2879, "too": 2880, "village": 2881, "masks": 2882, "embrace": 2883, "acting": 2884, "ga": 2885, "##rb": 2886, "enjoying": 2887, "downhill": 2888, "cats": 2889, "caring": 2890, "circled": 2891, "weave": 2892, "pu": 2893, "##gs": 2894, "mohawk": 2895, "drums": 2896, "feathers": 2897, "drum": 2898, "##nare": 2899, "reindeer": 2900, "ant": 2901, "##lers": 2902, "##ss": 2903, "##le": 2904, "def": 2905, "##lated": 2906, "regularly": 2907, "traditional": 2908, "ge": 2909, "##isha": 2910, "elaborate": 2911, "breaststroke": 2912, "butterfly": 2913, "order": 2914, "posed": 2915, "fashion": 2916, "stretched": 2917, "progressively": 2918, "higher": 2919, "jogging": 2920, "waterfront": 2921, "##rou": 2922, "winding": 2923, "pitch": 2924, "winds": 2925, "born": 2926, "more": 2927, "rugby": 2928, "##la": 2929, "boo": 2930, "maneuvers": 2931, "link": 2932, "sleep": 2933, "nap": 2934, "##nu": 2935, "##gg": 2936, "##tu": 2937, "##kie": 2938, "##ki": 2939, "patriotic": 2940, "colourful": 2941, "pursed": 2942, "custom": 2943, "##mobile": 2944, "blocking": 2945, "assistance": 2946, "scramble": 2947, "allowed": 2948, "grinning": 2949, "army": 2950, "bra": 2951, "afro": 2952, "ve": 2953, "fairy": 2954, "##wheel": 2955, "inner": 2956, "ding": 2957, "##hy": 2958, "triangular": 2959, "monument": 2960, "pyramid": 2961, "divided": 2962, "directions": 2963, "mouths": 2964, "lies": 2965, "completely": 2966, "hidden": 2967, "hide": 2968, "concealed": 2969, "coaster": 2970, "flipped": 2971, "multiple": 2972, "inverted": 2973, "##mbre": 2974, "##ro": 2975, "mobility": 2976, "motorized": 2977, "wheelchair": 2978, "shelves": 2979, "citizen": 2980, "shops": 2981, "ac": 2982, "distant": 2983, "##ik": 2984, "things": 2985, "##evic": 2986, "floral": 2987, "wagon": 2988, "##eis": 2989, "dresser": 2990, "applying": 2991, "client": 2992, "salon": 2993, "done": 2994, "tear": 2995, "sparse": 2996, "##ttered": 2997, "foreign": 2998, "asia": 2999, "beads": 3000, "billboard": 3001, "##tails": 3002, "y": 3003, "##po": 3004, "##ung": 3005, "heart": 3006, "fancy": 3007, "robe": 3008, "frowning": 3009, "##pipe": 3010, "medieval": 3011, "similar": 3012, "ep": 3013, "##end": 3014, "##ent": 3015, "trumpet": 3016, "marching": 3017, "trump": 3018, "hunt": 3019, "balancing": 3020, "beck": 3021, "helm": 3022, "##ents": 3023, "tractor": 3024, "squirrel": 3025, "drift": 3026, "melting": 3027, "mound": 3028, "upset": 3029, "streaming": 3030, "tears": 3031, "heavy": 3032, "rowing": 3033, "forth": 3034, "boards": 3035, "ninja": 3036, "character": 3037, "rangers": 3038, "ranger": 3039, "nude": 3040, "security": 3041, "series": 3042, "gates": 3043, "beam": 3044, "flex": 3045, "cheers": 3046, "dancer": 3047, "batter": 3048, "##play": 3049, "hitter": 3050, "scans": 3051, "offensive": 3052, "protects": 3053, "notre": 3054, "dame": 3055, "dusk": 3056, "emerges": 3057, "dan": 3058, "##del": 3059, "puff": 3060, "toe": 3061, "suspend": 3062, "spread": 3063, "tourists": 3064, "damaged": 3065, "injured": 3066, "dwelling": 3067, "color": 3068, "fireworks": 3069, "glow": 3070, "sparkle": 3071, "##su": 3072, "sash": 3073, "china": 3074, "weaving": 3075, "kisses": 3076, "ejected": 3077, "##te": 3078, "pokemon": 3079, "yells": 3080, "scar": 3081, "cows": 3082, "herd": 3083, "skeleton": 3084, "decoration": 3085, "organizing": 3086, "receives": 3087, "thumb": 3088, "ticket": 3089, "attach": 3090, "cheerful": 3091, "dimly": 3092, "singing": 3093, "club": 3094, "guitarist": 3095, "microphone": 3096, "plug": 3097, "listening": 3098, "sip": 3099, "drumming": 3100, "##stick": 3101, "banging": 3102, "overturned": 3103, "items": 3104, "ki": 3105, "##lt": 3106, "wi": 3107, "##eld": 3108, "scottish": 3109, "burgundy": 3110, "own": 3111, "soda": 3112, "pump": 3113, "adolescent": 3114, "launched": 3115, "sunlight": 3116, "afghan": 3117, "pointer": 3118, "patch": 3119, "shades": 3120, "shadow": 3121, "post": 3122, "teens": 3123, "prom": 3124, "fellow": 3125, "formal": 3126, "occasion": 3127, "salmon": 3128, "rose": 3129, "skinned": 3130, "lighter": 3131, "protect": 3132, "scratching": 3133, "leopard": 3134, "convenience": 3135, "##ush": 3136, "##ies": 3137, "filling": 3138, "watery": 3139, "approach": 3140, "##ifer": 3141, "violently": 3142, "fights": 3143, "##cing": 3144, "boot": 3145, "casting": 3146, "playful": 3147, "chicago": 3148, "heading": 3149, "84": 3150, "peterson": 3151, "labeled": 3152, "actions": 3153, "participant": 3154, "##sher": 3155, "construction": 3156, "drills": 3157, "drilling": 3158, "works": 3159, "active": 3160, "drill": 3161, "breed": 3162, "1": 3163, "pi": 3164, "##lar": 3165, "smooth": 3166, "enlarged": 3167, "carpenter": 3168, "iron": 3169, "samples": 3170, "seafood": 3171, "hunched": 3172, "mans": 3173, "encouraging": 3174, "handed": 3175, "warehouse": 3176, "waterway": 3177, "wrinkled": 3178, "sight": 3179, "delivering": 3180, "cookie": 3181, "cheered": 3182, "crowds": 3183, "complete": 3184, "finish": 3185, "##hd": 3186, "clever": 3187, "bowed": 3188, "parody": 3189, "nodding": 3190, "##ches": 3191, "smoked": 3192, "benches": 3193, "apparel": 3194, "final": 3195, "##dre": 3196, "##sse": 3197, "had": 3198, "bandage": 3199, "checked": 3200, "descending": 3201, "knees": 3202, "##back": 3203, "adorned": 3204, "intently": 3205, "travelling": 3206, "defensive": 3207, "position": 3208, "goalkeeper": 3209, "knelt": 3210, "##oire": 3211, "stripped": 3212, "extends": 3213, "nicely": 3214, "skip": 3215, "id": 3216, "##lic": 3217, "avoid": 3218, "located": 3219, "midst": 3220, "##au": 3221, "##tist": 3222, "part": 3223, "neatly": 3224, "overlook": 3225, "woody": 3226, "valley": 3227, "forested": 3228, "batsman": 3229, "bowled": 3230, "misses": 3231, "unique": 3232, "boating": 3233, "ravine": 3234, "##eva": 3235, "bared": 3236, "period": 3237, "european": 3238, "finishes": 3239, "trainer": 3240, "wrestling": 3241, "cotton": 3242, "candy": 3243, "cloud": 3244, "footballers": 3245, "victory": 3246, "baseman": 3247, "league": 3248, "rival": 3249, "anticipation": 3250, "second": 3251, "shortstop": 3252, "hangs": 3253, "##anne": 3254, "streets": 3255, "opponents": 3256, "progress": 3257, "bit": 3258, "laps": 3259, "focuses": 3260, "qui": 3261, "##nta": 3262, "anticipating": 3263, "##unce": 3264, "males": 3265, "vintage": 3266, "antique": 3267, "admire": 3268, "fashioned": 3269, "admiring": 3270, "cowboys": 3271, "restrain": 3272, "rodeo": 3273, "buck": 3274, "bulls": 3275, "mind": 3276, "props": 3277, "fisherman": 3278, "mist": 3279, "##water": 3280, "##ya": 3281, "gin": 3282, "harvested": 3283, "##ur": 3284, "pitching": 3285, "targeting": 3286, "partner": 3287, "practices": 3288, "punches": 3289, "trains": 3290, "husky": 3291, "emerging": 3292, "##uin": 3293, "##ts": 3294, "opens": 3295, "cockpit": 3296, "acc": 3297, "##omp": 3298, "##anies": 3299, "horseback": 3300, "continue": 3301, "moon": 3302, "cooking": 3303, "##lid": 3304, "mate": 3305, "dinosaur": 3306, "ex": 3307, "##hi": 3308, "##bt": 3309, "sisters": 3310, "hallways": 3311, "lime": 3312, "##pie": 3313, "##rg": 3314, "obedience": 3315, "concert": 3316, "stan": 3317, "workers": 3318, "cash": 3319, "register": 3320, "tips": 3321, "jar": 3322, "tip": 3323, "ka": 3324, "feather": 3325, "caution": 3326, "daytime": 3327, "lo": 3328, "##lly": 3329, "graphic": 3330, "cheek": 3331, "tracks": 3332, "pale": 3333, "casual": 3334, "##oth": 3335, "growls": 3336, "tugging": 3337, "entry": 3338, "playhouse": 3339, "cabin": 3340, "scoring": 3341, "focus": 3342, "shoot": 3343, "diner": 3344, "parlor": 3345, "domes": 3346, "design": 3347, "orb": 3348, "played": 3349, "8": 3350, "##ddle": 3351, "musical": 3352, "##gles": 3353, "##ness": 3354, "##gler": 3355, "mani": 3356, "##cured": 3357, "artistic": 3358, "growling": 3359, "seem": 3360, "##berman": 3361, "##wig": 3362, "disabled": 3363, "guards": 3364, "brings": 3365, "bum": 3366, "buried": 3367, "quietly": 3368, "darkly": 3369, "appear": 3370, "##bble": 3371, "navigate": 3372, "himself": 3373, "looming": 3374, "greene": 3375, "cookies": 3376, "se": 3377, "##id": 3378, "social": 3379, "##izing": 3380, "w": 3381, "##his": 3382, "pickup": 3383, "discouraged": 3384, "based": 3385, "communications": 3386, "##line": 3387, "vis": 3388, "tags": 3389, "creating": 3390, "##owing": 3391, "may": 3392, "crash": 3393, "##ica": 3394, "##ble": 3395, "demonstrates": 3396, "upright": 3397, "rear": 3398, "hauling": 3399, "pumped": 3400, "fists": 3401, "strength": 3402, "setup": 3403, "summer": 3404, "hitting": 3405, "canyon": 3406, "ceremony": 3407, "pauses": 3408, "##box": 3409, "wounded": 3410, "bloody": 3411, "wounds": 3412, "alert": 3413, "##let": 3414, "respond": 3415, "pilots": 3416, "skinny": 3417, "wo": 3418, "##am": 3419, "corridor": 3420, "jumper": 3421, "completes": 3422, "records": 3423, "bun": 3424, "##gee": 3425, "cord": 3426, "weeds": 3427, "obscene": 3428, "we": 3429, "because": 3430, "rainbow": 3431, "##coat": 3432, "overshadowed": 3433, "elevation": 3434, "juice": 3435, "outlines": 3436, "quarters": 3437, "delivery": 3438, "clipped": 3439, "fencing": 3440, "monitors": 3441, "bundled": 3442, "characters": 3443, "blaze": 3444, "itself": 3445, "everywhere": 3446, "gr": 3447, "##apple": 3448, "waste": 3449, "##land": 3450, "pe": 3451, "pebbles": 3452, "rounding": 3453, "##ker": 3454, "artists": 3455, "demonstrate": 3456, "##riz": 3457, "stopped": 3458, "flooded": 3459, "monster": 3460, "ace": 3461, "hairs": 3462, "##tyle": 3463, "plaza": 3464, "square": 3465, "forests": 3466, "##ind": 3467, "training": 3468, "asphalt": 3469, "return": 3470, "schools": 3471, "sprint": 3472, "##yse": 3473, "casts": 3474, "si": 3475, "##lu": 3476, "##ettes": 3477, "surveying": 3478, "shrubs": 3479, "indigo": 3480, "wiping": 3481, "exposing": 3482, "belly": 3483, "##outs": 3484, "lush": 3485, "cattle": 3486, "##oc": 3487, "##ious": 3488, "countryside": 3489, "##pack": 3490, "trek": 3491, "peaks": 3492, "##ailing": 3493, "teaching": 3494, "officers": 3495, "policemen": 3496, "law": 3497, "##cm": 3498, "speaking": 3499, "formation": 3500, "gigantic": 3501, "hay": 3502, "pumpkin": 3503, "star": 3504, "##work": 3505, "##lle": 3506, "routine": 3507, "skirts": 3508, "rifles": 3509, "auditorium": 3510, "##stle": 3511, "23": 3512, "barriers": 3513, "aisle": 3514, "##ked": 3515, "stiff": 3516, "praying": 3517, "##itating": 3518, "prayer": 3519, "hear": 3520, "antennae": 3521, "bands": 3522, "##fin": 3523, "slice": 3524, "snack": 3525, "snacks": 3526, "caps": 3527, "speeds": 3528, "early": 3529, "wrist": 3530, "nad": 3531, "##pass": 3532, "aids": 3533, "need": 3534, "attention": 3535, "sar": 3536, "##zily": 3537, "cal": 3538, "##ico": 3539, "accents": 3540, "tab": 3541, "##by": 3542, "suns": 3543, "##had": 3544, "##form": 3545, "tropical": 3546, "resort": 3547, "ha": 3548, "##z": 3549, "dummy": 3550, "dangerous": 3551, "environment": 3552, "bio": 3553, "##ha": 3554, "##zard": 3555, "human": 3556, "doll": 3557, "gu": 3558, "##rne": 3559, "gesturing": 3560, "awkward": 3561, "sprawling": 3562, "limbs": 3563, "##nor": 3564, "##kel": 3565, "driven": 3566, "##2": 3567, "crafted": 3568, "##gr": 3569, "##oud": 3570, "e": 3571, "##qui": 3572, "##ment": 3573, "geese": 3574, "lower": 3575, "##wei": 3576, "##ller": 3577, "lick": 3578, "seek": 3579, "##twined": 3580, "##xed": 3581, "##stic": 3582, "##ulates": 3583, "wal": 3584, "mart": 3585, "sm": 3586, "extended": 3587, "##if": 3588, "##rom": 3589, "##mart": 3590, "vampires": 3591, "scary": 3592, "vampire": 3593, "##ust": 3594, "skills": 3595, "duel": 3596, "fair": 3597, "##gre": 3598, "reed": 3599, "upper": 3600, "driveway": 3601, "al": 3602, "##ot": 3603, "amid": 3604, "tray": 3605, "thoroughly": 3606, "saturated": 3607, "spilled": 3608, "teach": 3609, "noise": 3610, "maker": 3611, "##maker": 3612, "##per": 3613, "sparks": 3614, "dared": 3615, "##ev": 3616, "##il": 3617, "bearing": 3618, "strawberry": 3619, "flashes": 3620, "gazes": 3621, "##dal": 3622, "##ized": 3623, "slalom": 3624, "flirt": 3625, "pl": 3626, "##eo": 3627, "##ple": 3628, "interact": 3629, "lavish": 3630, "##as": 3631, "##onic": 3632, "bone": 3633, "grasp": 3634, "once": 3635, "artificial": 3636, "hard": 3637, "te": 3638, "##ther": 3639, "flowing": 3640, "wrestler": 3641, "wrestlers": 3642, "bedroom": 3643, "bonnet": 3644, "downs": 3645, "arched": 3646, "pathway": 3647, "arbor": 3648, "atrium": 3649, "ability": 3650, "son": 3651, "determined": 3652, "expression": 3653, "mountainous": 3654, "fastened": 3655, "tow": 3656, "becomes": 3657, "##kis": 3658, "element": 3659, "broom": 3660, "sweeping": 3661, "forefront": 3662, "operate": 3663, "mom": 3664, "boredom": 3665, "depicting": 3666, "imagery": 3667, "##uc": 3668, "##ix": 3669, "jesus": 3670, "christ": 3671, "##ified": 3672, "shrine": 3673, "carried": 3674, "sponsors": 3675, "logos": 3676, "velvet": 3677, "basement": 3678, "mara": 3679, "##cas": 3680, "tam": 3681, "##bour": 3682, "##ines": 3683, "song": 3684, "trapped": 3685, "serious": 3686, "hurricanes": 3687, "##bling": 3688, "coaching": 3689, "age": 3690, "accent": 3691, "naval": 3692, "regal": 3693, "mounted": 3694, "crust": 3695, "bread": 3696, "glide": 3697, "babies": 3698, "ham": 3699, "##ming": 3700, "##oping": 3701, "je": 3702, "lagoon": 3703, "##set": 3704, "fixing": 3705, "ph": 3706, "##ys": 3707, "##iques": 3708, "##ooping": 3709, "beak": 3710, "vehicles": 3711, "newspapers": 3712, "commuter": 3713, "##uce": 3714, "##igo": 3715, "tap": 3716, "allow": 3717, "includes": 3718, "min": 3719, "community": 3720, "##ska": 3721, "mock": 3722, "egyptian": 3723, "earrings": 3724, "##tian": 3725, "kaye": 3726, "sinks": 3727, "taped": 3728, "silky": 3729, "sees": 3730, "tubular": 3731, "wires": 3732, "telegraph": 3733, "debris": 3734, "junk": 3735, "landfill": 3736, "rubble": 3737, "constructions": 3738, "courtyard": 3739, "slacks": 3740, "suite": 3741, "concentrate": 3742, "atomic": 3743, "arabian": 3744, "offs": 3745, "##tage": 3746, "cycle": 3747, "shouting": 3748, "rim": 3749, "tilt": 3750, "receive": 3751, "award": 3752, "baskets": 3753, "podium": 3754, "awaiting": 3755, "pedestal": 3756, "indicating": 3757, "houses": 3758, "boston": 3759, "##bridge": 3760, "cheerfully": 3761, "viewer": 3762, "shiny": 3763, "##kers": 3764, "lonely": 3765, "current": 3766, "preserve": 3767, "faithful": 3768, "soft": 3769, "wilderness": 3770, "nature": 3771, "dense": 3772, "decorative": 3773, "ze": 3774, "spraying": 3775, "##rting": 3776, "telescope": 3777, "gun": 3778, "625": 3779, "office": 3780, "tickets": 3781, "##ishing": 3782, "screams": 3783, "bows": 3784, "##ttes": 3785, "##ip": 3786, "groceries": 3787, "rows": 3788, "edges": 3789, "punt": 3790, "kicker": 3791, "scenic": 3792, "peaceful": 3793, "morning": 3794, "skyline": 3795, "lamp": 3796, "##ost": 3797, "charm": 3798, "bracelet": 3799, "sleeves": 3800, "stall": 3801, "granny": 3802, "panties": 3803, "##pants": 3804, "shelter": 3805, "bu": 3806, "sack": 3807, "wr": 3808, "##ink": 3809, "##ley": 3810, "shadows": 3811, "##cend": 3812, "dragging": 3813, "pirate": 3814, "hug": 3815, "vendors": 3816, "organic": 3817, "vegetables": 3818, "farmer": 3819, "##park": 3820, "##rai": 3821, "##sed": 3822, "doors": 3823, "##ably": 3824, "##ise": 3825, "grain": 3826, "spikes": 3827, "ambulance": 3828, "seattle": 3829, "observes": 3830, "hotel": 3831, "pee": 3832, "solitary": 3833, "moment": 3834, "flop": 3835, "shielding": 3836, "tied": 3837, "cary": 3838, "##hat": 3839, "length": 3840, "coast": 3841, "heap": 3842, "dyed": 3843, "korean": 3844, "aluminum": 3845, "que": 3846, "industrial": 3847, "terrace": 3848, "tumble": 3849, "circles": 3850, "embedded": 3851, "##mo": 3852, "##bil": 3853, "hindu": 3854, "citizens": 3855, "await": 3856, "good": 3857, "reception": 3858, "reddish": 3859, "knife": 3860, "dod": 3861, "supports": 3862, "google": 3863, "##off": 3864, "tails": 3865, "##rat": 3866, "##ulate": 3867, "discuss": 3868, "marks": 3869, "lipstick": 3870, "wa": 3871, "##aves": 3872, "torso": 3873, "collected": 3874, "##loh": 3875, "##uet": 3876, "afternoon": 3877, "reflecting": 3878, "soldiers": 3879, "civil": 3880, "##lian": 3881, "##sto": 3882, "ignoring": 3883, "checks": 3884, "settings": 3885, "studies": 3886, "operating": 3887, "##using": 3888, "speaker": 3889, "av": 3890, "##rov": 3891, "##ul": 3892, "gentlemen": 3893, "late": 3894, "flew": 3895, "secured": 3896, "footprints": 3897, "tentatively": 3898, "lets": 3899, "thrash": 3900, "scent": 3901, "gorgeous": 3902, "demonstrating": 3903, "pamphlets": 3904, "supporting": 3905, "cause": 3906, "massage": 3907, "vibrating": 3908, "coached": 3909, "tho": 3910, "scuba": 3911, "diver": 3912, "va": 3913, "##pour": 3914, "shape": 3915, "caravan": 3916, "travel": 3917, "polar": 3918, "rang": 3919, "cargo": 3920, "##ws": 3921, "mail": 3922, "causing": 3923, "spiral": 3924, "dip": 3925, "brief": 3926, "##hear": 3927, "sporting": 3928, "emerged": 3929, "##gers": 3930, "fierce": 3931, "trace": 3932, "##aged": 3933, "labrador": 3934, "rays": 3935, "outlined": 3936, "creates": 3937, "called": 3938, "lounge": 3939, "##sle": 3940, "abandoned": 3941, "##hair": 3942, "##light": 3943, "working": 3944, "weird": 3945, "stripe": 3946, "melt": 3947, "glacier": 3948, "##ool": 3949, "helped": 3950, "contents": 3951, "##llo": 3952, "gonzaga": 3953, "nec": 3954, "##lace": 3955, "marked": 3956, "##ga": 3957, "gathering": 3958, "computers": 3959, "##cam": 3960, "##eras": 3961, "teacher": 3962, "filmed": 3963, "lecture": 3964, "atmosphere": 3965, "dotted": 3966, "dot": 3967, "##edge": 3968, "sauce": 3969, "waist": 3970, "proximity": 3971, "lobby": 3972, "consumer": 3973, "lens": 3974, "##around": 3975, "rid": 3976, "towers": 3977, "entertaining": 3978, "blown": 3979, "further": 3980, "advances": 3981, "huddled": 3982, "##tors": 3983, "grin": 3984, "##ces": 3985, "trousers": 3986, "rom": 3987, "##w": 3988, "##lip": 3989, "squeak": 3990, "duke": 3991, "##ction": 3992, "ar": 3993, "##oss": 3994, "adjustments": 3995, "adjusting": 3996, "incline": 3997, "##gra": 3998, "crouched": 3999, "ruined": 4000, "swat": 4001, "pali": 4002, "swallow": 4003, "lie": 4004, "ho": 4005, "bronze": 4006, "individual": 4007, "crown": 4008, "photographers": 4009, "when": 4010, "extra": 4011, "##va": 4012, "##gent": 4013, "fest": 4014, "##ive": 4015, "passage": 4016, "spike": 4017, "lease": 4018, "curved": 4019, "aerodynamic": 4020, "##udge": 4021, "possessions": 4022, "worn": 4023, "wraps": 4024, "objects": 4025, "##ved": 4026, "##fs": 4027, "packages": 4028, "##bags": 4029, "traverse": 4030, "linked": 4031, "gothic": 4032, "stains": 4033, "breathing": 4034, "##tem": 4035, "test": 4036, "performance": 4037, "venue": 4038, "aimed": 4039, "bug": 4040, "##gies": 4041, "##lley": 4042, "za": 4043, "##ra": 4044, "strike": 4045, "goofy": 4046, "bigger": 4047, "##cast": 4048, "passed": 4049, "##ft": 4050, "##ig": 4051, "halt": 4052, "sling": 4053, "rushes": 4054, "##fall": 4055, "observing": 4056, "coordinator": 4057, "sole": 4058, "paints": 4059, "belt": 4060, "whom": 4061, "kicked": 4062, "curiously": 4063, "chewed": 4064, "vacant": 4065, "bricks": 4066, "laid": 4067, "bis": 4068, "##cuit": 4069, "milk": 4070, "##bone": 4071, "darker": 4072, "ti": 4073, "chi": 4074, "areas": 4075, "hunter": 4076, "ic": 4077, "synchronized": 4078, "hanna": 4079, "montana": 4080, "canon": 4081, "prepared": 4082, "##ar": 4083, "##iz": 4084, "##zy": 4085, "nursery": 4086, "campground": 4087, "##ite": 4088, "blazing": 4089, "cobb": 4090, "triangle": 4091, "than": 4092, "storm": 4093, "drain": 4094, "##lled": 4095, "chart": 4096, "torn": 4097, "##ruff": 4098, "crates": 4099, "love": 4100, "language": 4101, "australian": 4102, "##wny": 4103, "pets": 4104, "apartment": 4105, "fed": 4106, "##ora": 4107, "spiked": 4108, "swirling": 4109, "cycling": 4110, "steady": 4111, "l": 4112, "##vel": 4113, "wrapping": 4114, "tin": 4115, "##sel": 4116, "smiled": 4117, "cello": 4118, "sh": 4119, "darkness": 4120, "expanding": 4121, "spreading": 4122, "flap": 4123, "tour": 4124, "##oise": 4125, "##bell": 4126, "muscular": 4127, "rippled": 4128, "quilt": 4129, "saber": 4130, "sword": 4131, "litter": 4132, "tired": 4133, "astonishment": 4134, "confronts": 4135, "daughters": 4136, "grown": 4137, "demons": 4138, "logs": 4139, "buffalo": 4140, "skipping": 4141, "swords": 4142, "glances": 4143, "height": 4144, "consumed": 4145, "pillows": 4146, "furniture": 4147, "##4": 4148, "goods": 4149, "bananas": 4150, "##ains": 4151, "##lide": 4152, "tumbling": 4153, "bumps": 4154, "posts": 4155, "main": 4156, "sails": 4157, "sailing": 4158, "masses": 4159, "startled": 4160, "recoil": 4161, "impact": 4162, "##ster": 4163, "removing": 4164, "##rter": 4165, "piercing": 4166, "compact": 4167, "fe": 4168, "everyone": 4169, "sad": 4170, "calf": 4171, "package": 4172, "witnesses": 4173, "dealt": 4174, "##h": 4175, "##post": 4176, "labs": 4177, "size": 4178, "rap": 4179, "##pel": 4180, "##hel": 4181, "##ete": 4182, "either": 4183, "nighttime": 4184, "internet": 4185, "ohio": 4186, "##plate": 4187, "battling": 4188, "examining": 4189, "soaked": 4190, "keeps": 4191, "dragons": 4192, "year": 4193, "celebration": 4194, "slumped": 4195, "##dy": 4196, "##lion": 4197, "dai": 4198, "##sies": 4199, "champ": 4200, "rafael": 4201, "forceful": 4202, "employees": 4203, "livestock": 4204, "accompanied": 4205, "grassland": 4206, "telephone": 4207, "booths": 4208, "booth": 4209, "##ond": 4210, "widows": 4211, "brushes": 4212, "apron": 4213, "contemplating": 4214, "thought": 4215, "thinking": 4216, "decorations": 4217, "##ddled": 4218, "##rts": 4219, "strapped": 4220, "dragged": 4221, "droplets": 4222, "ox": 4223, "silk": 4224, "performers": 4225, "##tley": 4226, "divers": 4227, "ollie": 4228, "sweating": 4229, "##gated": 4230, "mills": 4231, "chan": 4232, "##ier": 4233, "##ci": 4234, "dodge": 4235, "styled": 4236, "gown": 4237, "grim": 4238, "##acing": 4239, "thousand": 4240, "hundred": 4241, "thirty": 4242, "staffordshire": 4243, "project": 4244, "brass": 4245, "jazz": 4246, "sax": 4247, "##hone": 4248, "loses": 4249, "##fer": 4250, "was": 4251, "fell": 4252, "##oris": 4253, "##ood": 4254, "formed": 4255, "completed": 4256, "fort": 4257, "built": 4258, "mouthed": 4259, "oh": 4260, "bay": 4261, "guarded": 4262, "drainage": 4263, "parent": 4264, "##chel": 4265, "suitcase": 4266, "labelled": 4267, "lucky": 4268, "themed": 4269, "##flow": 4270, "mill": 4271, "spoke": 4272, "scratches": 4273, "os": 4274, "##me": 4275, "kind": 4276, "##hall": 4277, "##lay": 4278, "stance": 4279, "slight": 4280, "tilting": 4281, "lifeboat": 4282, "launcher": 4283, "released": 4284, "rushed": 4285, "nestled": 4286, "cleaning": 4287, "lad": 4288, "container": 4289, "golf": 4290, "clemson": 4291, "quarry": 4292, "india": 4293, "##pre": 4294, "##ad": 4295, "bobbed": 4296, "97": 4297, "walkers": 4298, "##lines": 4299, "pat": 4300, "saddle": 4301, "##pen": 4302, "##les": 4303, "padded": 4304, "hawaii": 4305, "placing": 4306, "freddy": 4307, "##ru": 4308, "##eger": 4309, "louis": 4310, "vu": 4311, "widow": 4312, "##ups": 4313, "bathroom": 4314, "flood": 4315, "mechanical": 4316, "rabbit": 4317, "drip": 4318, "##dian": 4319, "##ee": 4320, "##ation": 4321, "breaker": 4322, "florida": 4323, "33": 4324, "rally": 4325, "procession": 4326, "amp": 4327, "##hit": 4328, "##heater": 4329, "conference": 4330, "battle": 4331, "sub": 4332, "##mer": 4333, "##ges": 4334, "missing": 4335, "tooth": 4336, "call": 4337, "deserted": 4338, "mermaid": 4339, "tackles": 4340, "ft": 4341, "residential": 4342, "##wind": 4343, "##ow": 4344, "shutter": 4345, "fountains": 4346, "mexican": 4347, "mexico": 4348, "needle": 4349, "##point": 4350, "tending": 4351, "aba": 4352, "##rro": 4353, "aims": 4354, "##app": 4355, "engaged": 4356, "physical": 4357, "contact": 4358, "sox": 4359, "##ris": 4360, "railroad": 4361, "##fighter": 4362, "##uis": 4363, "##hes": 4364, "##hos": 4365, "engine": 4366, "##jack": 4367, "puck": 4368, "##ering": 4369, "z": 4370, "##za": 4371, "lump": 4372, "##fight": 4373, "ash": 4374, "##anger": 4375, "descent": 4376, "western": 4377, "##ride": 4378, "youth": 4379, "mirrored": 4380, "sphere": 4381, "rip": 4382, "prop": 4383, "revealing": 4384, "cleavage": 4385, "sep": 4386, "##erate": 4387, "crazy": 4388, "towels": 4389, "##pping": 4390, "52": 4391, "philadelphia": 4392, "phil": 4393, "pitchers": 4394, "contra": 4395, "##cp": 4396, "thick": 4397, "feeding": 4398, "eyebrows": 4399, "cigar": 4400, "##uch": 4401, "marx": 4402, "joke": 4403, "bela": 4404, "##ition": 4405, "equestrian": 4406, "##do": 4407, "theme": 4408, "enjoyment": 4409, "raise": 4410, "##co": 4411, "##aster": 4412, "phones": 4413, "focused": 4414, "crack": 4415, "##rc": 4416, "symbol": 4417, "counters": 4418, "change": 4419, "##zz": 4420, "##eria": 4421, "buzz": 4422, "zoom": 4423, "led": 4424, "ferns": 4425, "goose": 4426, "cuts": 4427, "ax": 4428, "axe": 4429, "rapidly": 4430, "fresh": 4431, "##hand": 4432, "##sters": 4433, "ming": 4434, "exercise": 4435, "hugged": 4436, "bohemian": 4437, "cooks": 4438, "nightclub": 4439, "form": 4440, "stacks": 4441, "washed": 4442, "given": 4443, "handheld": 4444, "##head": 4445, "lilly": 4446, "apples": 4447, "##imi": 4448, "retaining": 4449, "##ndo": 4450, "operators": 4451, "italy": 4452, "##lier": 4453, "venice": 4454, "rower": 4455, "crew": 4456, "skyscraper": 4457, "stunts": 4458, "experiences": 4459, "##cite": 4460, "occupied": 4461, "cloak": 4462, "wizard": 4463, "macintosh": 4464, "rode": 4465, "##nt": 4466, "##eca": 4467, "nipple": 4468, "provocative": 4469, "##lp": 4470, "crows": 4471, "enough": 4472, "bulldog": 4473, "80": 4474, "movie": 4475, "member": 4476, "aquarium": 4477, "seal": 4478, "squeezing": 4479, "surround": 4480, "adventurer": 4481, "burr": 4482, "seems": 4483, "david": 4484, "##ham": 4485, "pools": 4486, "self": 4487, "shook": 4488, "cheeks": 4489, "avoiding": 4490, "##coming": 4491, "feels": 4492, "ind": 4493, "##cript": 4494, "seats": 4495, "dominant": 4496, "safari": 4497, "cracked": 4498, "ashe": 4499, "flats": 4500, "clears": 4501, "ramps": 4502, "arch": 4503, "mainly": 4504, "pasture": 4505, "dia": 4506, "taught": 4507, "rat": 4508, "rods": 4509, "begging": 4510, "whisper": 4511, "##ten": 4512, "whispering": 4513, "gathers": 4514, "##tr": 4515, "##uck": 4516, "firefighters": 4517, "strips": 4518, "fields": 4519, "hilly": 4520, "attacking": 4521, "greyish": 4522, "mark": 4523, "thing": 4524, "kissed": 4525, "blues": 4526, "brothers": 4527, "imp": 4528, "##erson": 4529, "##ator": 4530, "tong": 4531, "gi": 4532, "##th": 4533, "dh": 4534, "striking": 4535, "jogged": 4536, "crop": 4537, "fi": 4538, "##est": 4539, "foul": 4540, "handling": 4541, "scowl": 4542, "coated": 4543, "happening": 4544, "tv": 4545, "bal": 4546, "##ck": 4547, "converse": 4548, "pursued": 4549, "closing": 4550, "##nies": 4551, "rabbits": 4552, "bang": 4553, "sa": 4554, "##fr": 4555, "obstacles": 4556, "stride": 4557, "surge": 4558, "crocodile": 4559, "jaw": 4560, "obama": 4561, "median": 4562, "bumper": 4563, "nascar": 4564, "keep": 4565, "misty": 4566, "chalk": 4567, "seaside": 4568, "torch": 4569, "shocked": 4570, "messenger": 4571, "ink": 4572, "trailing": 4573, "tread": 4574, "em": 4575, "images": 4576, "alligator": 4577, "belongs": 4578, "goo": 4579, "bears": 4580, "app": 4581, "##lau": 4582, "281": 4583, "clapped": 4584, "expressions": 4585, "concerned": 4586, "furiously": 4587, "spark": 4588, "squinting": 4589, "stuff": 4590, "##mu": 4591, "##ffs": 4592, "bland": 4593, "exits": 4594, "deposited": 4595, "shoots": 4596, "doorstep": 4597, "entertainer": 4598, "##get": 4599, "bowler": 4600, "##ics": 4601, "swarm": 4602, "marble": 4603, "attack": 4604, "##ggle": 4605, "cook": 4606, "backing": 4607, "stove": 4608, "intense": 4609, "changes": 4610, "speeding": 4611, "bearer": 4612, "petals": 4613, "architectural": 4614, "forte": 4615, "pay": 4616, "##fully": 4617, "digger": 4618, "double": 4619, "exposure": 4620, "captured": 4621, "reflects": 4622, "domino": 4623, "pizza": 4624, "tower": 4625, "screening": 4626, "c": 4627, "novel": 4628, "rick": 4629, "##ety": 4630, "licked": 4631, "##dock": 4632, "wildly": 4633, "mma": 4634, "fighters": 4635, "recently": 4636, "instructor": 4637, "drenched": 4638, "muscles": 4639, "bolts": 4640, "##pit": 4641, "electrical": 4642, "##pi": 4643, "fix": 4644, "games": 4645, "pattern": 4646, "hays": 4647, "##cks": 4648, "##tone": 4649, "island": 4650, "##oy": 4651, "panting": 4652, "sacks": 4653, "h": 4654, "##tting": 4655, "u": 4656, "cubic": 4657, "spacious": 4658, "##ty": 4659, "trailer": 4660, "shed": 4661, "affectionately": 4662, "dramatically": 4663, "romantic": 4664, "##nding": 4665, "purchasing": 4666, "lack": 4667, "##foot": 4668, "hundreds": 4669, "defend": 4670, "portable": 4671, "toilets": 4672, "port": 4673, "##ties": 4674, "bathrooms": 4675, "blossoms": 4676, "flowering": 4677, "stir": 4678, "##pate": 4679, "##tangled": 4680, "bodies": 4681, "exterior": 4682, "sync": 4683, "much": 4684, "exiting": 4685, "aggressive": 4686, "filed": 4687, "versus": 4688, "##aran": 4689, "##tly": 4690, "stockings": 4691, "ripped": 4692, "sheppard": 4693, "bt": 4694, "reeling": 4695, "books": 4696, "blossom": 4697, "cherry": 4698, "cycles": 4699, "il": 4700, "ou": 4701, "##side": 4702, "sleek": 4703, "##ish": 4704, "circus": 4705, "levels": 4706, "##llet": 4707, "topped": 4708, "loaded": 4709, "specialized": 4710, "heights": 4711, "footballer": 4712, "punk": 4713, "crude": 4714, "wolf": 4715, "howl": 4716, "any": 4717, "if": 4718, "dipping": 4719, "spoon": 4720, "soup": 4721, "brand": 4722, "vast": 4723, "find": 4724, "mets": 4725, "##rly": 4726, "davis": 4727, "recreational": 4728, "yellowish": 4729, "##rm": 4730, "spiritual": 4731, "landmark": 4732, "positions": 4733, "tori": 4734, "oriental": 4735, "skin": 4736, "outward": 4737, "pens": 4738, "indy": 4739, "pits": 4740, "downtown": 4741, "dave": 4742, "buster": 4743, "restaurants": 4744, "arriving": 4745, "bandages": 4746, "beams": 4747, "##cie": 4748, "story": 4749, "shave": 4750, "pin": 4751, "encouraged": 4752, "ban": 4753, "##ister": 4754, "contest": 4755, "loan": 4756, "75": 4757, "powerful": 4758, "awkwardly": 4759, "guessing": 4760, "verbal": 4761, "exchange": 4762, "##plex": 4763, "##igan": 4764, "standard": 4765, "##ara": 4766, "##unt": 4767, "stores": 4768, "nu": 4769, "forehead": 4770, "cushions": 4771, "paperwork": 4772, "gorge": 4773, "n": 4774, "become": 4775, "seeing": 4776, "elementary": 4777, "pregnant": 4778, "pro": 4779, "america": 4780, "protesting": 4781, "explosion": 4782, "occur": 4783, "eng": 4784, "##ulf": 4785, "dusty": 4786, "##gul": 4787, "vision": 4788, "tells": 4789, "secret": 4790, "##gon": 4791, "disks": 4792, "fu": 4793, "##tically": 4794, "expressing": 4795, "opinion": 4796, "pleading": 4797, "##lica": 4798, "toilet": 4799, "infants": 4800, "drummer": 4801, "saxophone": 4802, "##ele": 4803, "surgical": 4804, "married": 4805, "maids": 4806, "7": 4807, "lowering": 4808, "tease": 4809, "energetic": 4810, "mon": 4811, "##iter": 4812, "##ieving": 4813, "gift": 4814, "winters": 4815, "panda": 4816, "gotten": 4817, "refrigerator": 4818, "surrounds": 4819, "grounded": 4820, "firing": 4821, "process": 4822, "##ating": 4823, "skipped": 4824, "site": 4825, "##pole": 4826, "##yard": 4827, "classmates": 4828, "glowing": 4829, "swan": 4830, "producing": 4831, "scraping": 4832, "grove": 4833, "met": 4834, "curl": 4835, "menu": 4836, "waiter": 4837, "unhappy": 4838, "orders": 4839, "res": 4840, "##aur": 4841, "##ant": 4842, "glitter": 4843, "companion": 4844, "elevated": 4845, "determination": 4846, "##van": 4847, "evening": 4848, "##path": 4849, "##rys": 4850, "bottled": 4851, "argues": 4852, "simultaneously": 4853, "decide": 4854, "signal": 4855, "churning": 4856, "say": 4857, "io": 4858, "##ve": 4859, "message": 4860, "cards": 4861, "vine": 4862, "harbor": 4863, "most": 4864, "plates": 4865, "ju": 4866, "entire": 4867, "signals": 4868, "flash": 4869, "alike": 4870, "letter": 4871, "##ied": 4872, "##max": 4873, "wetland": 4874, "notices": 4875, "ducks": 4876, "ones": 4877, "##ear": 4878, "produce": 4879, "visiting": 4880, "starring": 4881, "wu": 4882, "russell": 4883, "##dog": 4884, "frames": 4885, "collapses": 4886, "wink": 4887, "ll": 4888, "touched": 4889, "##ue": 4890, "faint": 4891, "soap": 4892, "hooked": 4893, "terror": 4894, "##izes": 4895, "sponge": 4896, "diagram": 4897, "displayed": 4898, "anatomy": 4899, "tell": 4900, "fortune": 4901, "poor": 4902, "battles": 4903, "perpendicular": 4904, "negotiate": 4905, "patrol": 4906, "##col": 4907, "##oured": 4908, "mi": 4909, "exotic": 4910, "suited": 4911, "##tag": 4912, "oversized": 4913, "presents": 4914, "scared": 4915, "apparatus": 4916, "gambling": 4917, "##rup": 4918, "ornate": 4919, "ceremonial": 4920, "##ssel": 4921, "##oic": 4922, "fringe": 4923, "stubble": 4924, "vigorous": 4925, "bring": 4926, "clasped": 4927, "barr": 4928, "chips": 4929, "tiled": 4930, "carousel": 4931, "plan": 4932, "model": 4933, "biplane": 4934, "helicopter": 4935, "##outh": 4936, "sizes": 4937, "purchase": 4938, "product": 4939, "dir": 4940, "pinned": 4941, "displays": 4942, "awards": 4943, "jars": 4944, "attacks": 4945, "ragged": 4946, "cork": 4947, "burst": 4948, "experiment": 4949, "breathe": 4950, "obscured": 4951, "obscure": 4952, "wielding": 4953, "##ei": 4954, "##gh": 4955, "discovers": 4956, "feature": 4957, "otherwise": 4958, "collection": 4959, "suggest": 4960, "garage": 4961, "howling": 4962, "##gie": 4963, "royal": 4964, "warning": 4965, "hack": 4966, "easily": 4967, "passageway": 4968, "loose": 4969, "groups": 4970, "huskies": 4971, "packs": 4972, "greenish": 4973, "##time": 4974, "pr": 4975, "##an": 4976, "strides": 4977, "##ill": 4978, "vents": 4979, "finished": 4980, "rises": 4981, "fiery": 4982, "mold": 4983, "windy": 4984, "##leg": 4985, "ot": 4986, "turtle": 4987, "attacked": 4988, "una": 4989, "##mus": 4990, "arid": 4991, "pouch": 4992, "foothills": 4993, "chests": 4994, "ginger": 4995, "##bread": 4996, "distressed": 4997, "treats": 4998, "involved": 4999, "collision": 5000, "array": 5001, "deciding": 5002, "##go": 5003, "##ri": 5004, "curt": 5005, "##sey": 5006, "##gging": 5007, "stalks": 5008, "##sk": 5009, "piles": 5010, "arizona": 5011, "prairie": 5012, "armchair": 5013, "numerous": 5014, "roi": 5015, "harmonica": 5016, "gui": 5017, "##uta": 5018, "##rist": 5019, "clean": 5020, "sud": 5021, "wiped": 5022, "cleaned": 5023, "knotted": 5024, "##hil": 5025, "##cca": 5026, "##ssion": 5027, "pins": 5028, "##trip": 5029, "##room": 5030, "cooper": 5031, "auto": 5032, "draft": 5033, "##ola": 5034, "##ops": 5035, "##finder": 5036, "aiming": 5037, "defending": 5038, "goaltender": 5039, "pirates": 5040, "curled": 5041, "cautious": 5042, "madly": 5043, "local": 5044, "halfway": 5045, "convention": 5046, "swans": 5047, "gel": 5048, "tying": 5049, "messy": 5050, "else": 5051, "trim": 5052, "halves": 5053, "confrontation": 5054, "confronting": 5055, "till": 5056, "##ch": 5057, "huts": 5058, "soil": 5059, "homes": 5060, "##rate": 5061, "foyer": 5062, "receiving": 5063, "rice": 5064, "bell": 5065, "##bot": 5066, "##tom": 5067, "grill": 5068, "##sta": 5069, "##lk": 5070, "roasted": 5071, "buy": 5072, "astro": 5073, "turf": 5074, "competes": 5075, "elbows": 5076, "roadway": 5077, "pigs": 5078, "sewer": 5079, "cries": 5080, "sum": 5081, "sumo": 5082, "##pet": 5083, "##iting": 5084, "##ito": 5085, "sights": 5086, "tandem": 5087, "seater": 5088, "clutches": 5089, "##je": 5090, "##st": 5091, "automobiles": 5092, "trophy": 5093, "winner": 5094, "ways": 5095, "strokes": 5096, "cadet": 5097, "properly": 5098, "assisting": 5099, "boundary": 5100, "convoy": 5101, "ing": 5102, "interrupt": 5103, "ref": 5104, "goals": 5105, "devil": 5106, "lighted": 5107, "insect": 5108, "unmanned": 5109, "protector": 5110, "washing": 5111, "americans": 5112, "confused": 5113, "##chy": 5114, "tucked": 5115, "mechanisms": 5116, "op": 5117, "arguing": 5118, "tick": 5119, "##oms": 5120, "cheerleading": 5121, "foil": 5122, "east": 5123, "seed": 5124, "session": 5125, "involving": 5126, "##mes": 5127, "theater": 5128, "vaults": 5129, "dome": 5130, "shaft": 5131, "##unk": 5132, "cavern": 5133, "bathed": 5134, "##fish": 5135, "spec": 5136, "##kled": 5137, "flores": 5138, "mast": 5139, "##azi": 5140, "native": 5141, "prize": 5142, "embankment": 5143, "depicts": 5144, "##pas": 5145, "##written": 5146, "notice": 5147, "gentle": 5148, "fairly": 5149, "were": 5150, "establishment": 5151, "sheltered": 5152, "retrieved": 5153, "dragon": 5154, "tablet": 5155, "god": 5156, "judgement": 5157, "##tangle": 5158, "twisted": 5159, "collegiate": 5160, "articles": 5161, "cleared": 5162, "beaten": 5163, "ode": 5164, "freshly": 5165, "classical": 5166, "slender": 5167, "homer": 5168, "safe": 5169, "fails": 5170, "cone": 5171, "remaining": 5172, "wants": 5173, "last": 5174, "104": 5175, "roadside": 5176, "qu": 5177, "##aint": 5178, "virtual": 5179, "projected": 5180, "joined": 5181, "clap": 5182, "subject": 5183, "crow": 5184, "slick": 5185, "deer": 5186, "##ake": 5187, "underside": 5188, "worm": 5189, "curling": 5190, "badminton": 5191, "evident": 5192, "dove": 5193, "mag": 5194, "pamphlet": 5195, "bulldogs": 5196, "duff": 5197, "##erina": 5198, "backstage": 5199, "applies": 5200, "tia": 5201, "wig": 5202, "vista": 5203, "engulfed": 5204, "supervise": 5205, "learns": 5206, "illuminated": 5207, "ships": 5208, "tightly": 5209, "##fighting": 5210, "mata": 5211, "##dor": 5212, "17": 5213, "pei": 5214, "##dora": 5215, "12": 5216, "offers": 5217, "broadly": 5218, "classes": 5219, "here": 5220, "girlfriends": 5221, "brow": 5222, "tangled": 5223, "forms": 5224, "intricate": 5225, "designs": 5226, "ultimate": 5227, "illustration": 5228, "##dles": 5229, "balanced": 5230, "zoo": 5231, "handler": 5232, "winning": 5233, "dye": 5234, "##itte": 5235, "laundry": 5236, "machinery": 5237, "struggle": 5238, "react": 5239, "entering": 5240, "speakers": 5241, "##ju": 5242, "jewels": 5243, "john": 5244, "newborn": 5245, "##tt": 5246, "##tee": 5247, "antenna": 5248, "television": 5249, "##creen": 5250, "packaged": 5251, "gifts": 5252, "sang": 5253, "prevent": 5254, "##liner": 5255, "##bie": 5256, "presses": 5257, "uniquely": 5258, "better": 5259, "dessert": 5260, "handgun": 5261, "emi": 5262, "flare": 5263, "pistol": 5264, "let": 5265, "used": 5266, "protesters": 5267, "signature": 5268, "document": 5269, "signed": 5270, "rush": 5271, "sorts": 5272, "shadowed": 5273, "##resh": 5274, "arc": 5275, "will": 5276, "wheat": 5277, "flaming": 5278, "less": 5279, "developed": 5280, "government": 5281, "courthouse": 5282, "beg": 5283, "ballet": 5284, "composed": 5285, "##uze": 5286, "travers": 5287, "giggling": 5288, "bundle": 5289, "draw": 5290, "accordion": 5291, "clergy": 5292, "priest": 5293, "chili": 5294, "cheese": 5295, "obe": 5296, "##se": 5297, "mustard": 5298, "heather": 5299, "fold": 5300, "geological": 5301, "jets": 5302, "##orin": 5303, "escape": 5304, "rustic": 5305, "challenge": 5306, "tiles": 5307, "save": 5308, "steam": 5309, "backseat": 5310, "keyboard": 5311, "solo": 5312, "feeds": 5313, "cartoon": 5314, "stu": 5315, "tale": 5316, "freestyle": 5317, "perch": 5318, "pitted": 5319, "clips": 5320, "##lli": 5321, "##pop": 5322, "pun": 5323, "##cture": 5324, "collecting": 5325, "eggs": 5326, "easter": 5327, "egg": 5328, "noodles": 5329, "ut": 5330, "##ens": 5331, "##ils": 5332, "##resses": 5333, "march": 5334, "##rder": 5335, "bridges": 5336, "turkey": 5337, "##ol": 5338, "hawaiian": 5339, "carts": 5340, "twin": 5341, "evergreen": 5342, "##run": 5343, "apex": 5344, "michael": 5345, "jackson": 5346, "thriller": 5347, "##tte": 5348, "layered": 5349, "mcdonald": 5350, "monitoring": 5351, "stopping": 5352, "gradual": 5353, "furnace": 5354, "v": 5355, "hook": 5356, "##proof": 5357, "claws": 5358, "railway": 5359, "banks": 5360, "ornaments": 5361, "brows": 5362, "ornamental": 5363, "scroll": 5364, "patterns": 5365, "bulging": 5366, "apartments": 5367, "roofs": 5368, "wash": 5369, "##wash": 5370, "nets": 5371, "gauge": 5372, "blitz": 5373, "##oche": 5374, "pierced": 5375, "page": 5376, "##ances": 5377, "attempted": 5378, "metro": 5379, "conical": 5380, "cannot": 5381, "##abe": 5382, "lesson": 5383, "penguins": 5384, "##ross": 5385, "bundles": 5386, "zombies": 5387, "everybody": 5388, "zombie": 5389, "bouquet": 5390, "barn": 5391, "##cher": 5392, "trooper": 5393, "ai": 5394, "words": 5395, "##ami": 5396, "##sh": 5397, "reacting": 5398, "spur": 5399, "crushed": 5400, "demolished": 5401, "28": 5402, "snaps": 5403, "captures": 5404, "entertain": 5405, "##red": 5406, "marking": 5407, "fours": 5408, "clover": 5409, "powered": 5410, "rocket": 5411, "kildare": 5412, "medal": 5413, "creeping": 5414, "##lor": 5415, "bangs": 5416, "thor": 5417, "##ugh": 5418, "courts": 5419, "squeeze": 5420, "hungry": 5421, "downward": 5422, "wei": 5423, "##lding": 5424, "gnome": 5425, "begs": 5426, "quiet": 5427, "pencil": 5428, "lou": 5429, "##nging": 5430, "rubs": 5431, "cutting": 5432, "shi": 5433, "views": 5434, "skeptical": 5435, "smirk": 5436, "department": 5437, "modifications": 5438, "3rd": 5439, "continues": 5440, "temporary": 5441, "constructed": 5442, "alcohol": 5443, "french": 5444, "donations": 5445, "pigeon": 5446, "21": 5447, "##ski": 5448, "activity": 5449, "film": 5450, "##boy": 5451, "production": 5452, "walled": 5453, "science": 5454, "##fa": 5455, "##cated": 5456, "frightened": 5457, "uno": 5458, "reds": 5459, "additional": 5460, "patrons": 5461, "siren": 5462, "measured": 5463, "##ibe": 5464, "islamic": 5465, "holy": 5466, "stepped": 5467, "##pled": 5468, "whoa": 5469, "stumbling": 5470, "##ste": 5471, "mandolin": 5472, "che": 5473, "rebound": 5474, "oppose": 5475, "contained": 5476, "tabloid": 5477, "clause": 5478, "odd": 5479, "energy": 5480, "##hin": 5481, "ee": 5482, "roundabout": 5483, "charging": 5484, "charged": 5485, "mis": 5486, "##ari": 5487, "coyotes": 5488, "limo": 5489, "limousine": 5490, "figures": 5491, "nipples": 5492, "##rce": 5493, "tanned": 5494, "aside": 5495, "ipod": 5496, "mp3": 5497, "best": 5498, "potato": 5499, "chip": 5500, "stacked": 5501, "create": 5502, "tapped": 5503, "amazing": 5504, "##riders": 5505, "murals": 5506, "unknown": 5507, "rounded": 5508, "##sha": 5509, "models": 5510, "##fire": 5511, "clustered": 5512, "bonfire": 5513, "communal": 5514, "darts": 5515, "serving": 5516, "cafeteria": 5517, "propelled": 5518, "##ware": 5519, "##hers": 5520, "towed": 5521, "repair": 5522, "beat": 5523, "pastry": 5524, "dough": 5525, "##nut": 5526, "baked": 5527, "total": 5528, "conversations": 5529, "separate": 5530, "reported": 5531, "interviewing": 5532, "gravity": 5533, "redwood": 5534, "##oia": 5535, "situated": 5536, "yelling": 5537, "##dl": 5538, "latter": 5539, "ras": 5540, "##name": 5541, "##tch": 5542, "us": 5543, "##dr": 5544, "dale": 5545, "jr": 5546, "earn": 5547, "##hardt": 5548, "jewish": 5549, "disgusted": 5550, "everything": 5551, "vegetation": 5552, "excess": 5553, "shots": 5554, "bartender": 5555, "crank": 5556, "marlins": 5557, "target": 5558, "protection": 5559, "fires": 5560, "marches": 5561, "produces": 5562, "heating": 5563, "flaps": 5564, "hove": 5565, "##cs": 5566, "hovering": 5567, "variety": 5568, "folks": 5569, "my": 5570, "buddy": 5571, "dizzy": 5572, "nursing": 5573, "breast": 5574, "##eding": 5575, "suck": 5576, "yacht": 5577, "barge": 5578, "##iki": 5579, "london": 5580, "##rret": 5581, "political": 5582, "tax": 5583, "me": 5584, "plains": 5585, "##dded": 5586, "##nas": 5587, "sunrise": 5588, "##ea": 5589, "tor": 5590, "yamaha": 5591, "eagerly": 5592, "fries": 5593, "key": 5594, "hate": 5595, "hearts": 5596, "hp": 5597, "endorsement": 5598, "recital": 5599, "eleven": 5600, "##tus": 5601, "photography": 5602, "##ita": 5603, "boarded": 5604, "abandon": 5605, "hatch": 5606, "r": 5607, "windmill": 5608, "##cker": 5609, "grasping": 5610, "russ": 5611, "urge": 5612, "robot": 5613, "enthusiastically": 5614, "slippery": 5615, "##ni": 5616, "##vers": 5617, "##trum": 5618, "guiding": 5619, "##race": 5620, "nest": 5621, "astrid": 5622, "fairies": 5623, "guided": 5624, "##oed": 5625, "wrists": 5626, "celtics": 5627, "chow": 5628, "##ske": 5629, "pressing": 5630, "smart": 5631, "statues": 5632, "smelling": 5633, "examine": 5634, "pressure": 5635, "vie": 5636, "jake": 5637, "littered": 5638, "confront": 5639, "ne": 5640, "##rf": 5641, "##one": 5642, "bats": 5643, "ages": 5644, "kong": 5645, "tomato": 5646, "##ports": 5647, "##erated": 5648, "##nch": 5649, "##riding": 5650, "##gree": 5651, "sparkling": 5652, "sprawled": 5653, "##oft": 5654, "lighthouse": 5655, "yell": 5656, "##inge": 5657, "oval": 5658, "##be": 5659, "##que": 5660, "missed": 5661, "minimal": 5662, "again": 5663, "hooker": 5664, "ok": 5665, "scrub": 5666, "1950s": 5667, "##tter": 5668, "bones": 5669, "samsung": 5670, "participates": 5671, "garland": 5672, "brazilian": 5673, "lei": 5674, "slipping": 5675, "tel": 5676, "##ep": 5677, "##hot": 5678, "lenses": 5679, "##ods": 5680, "sho": 5681, "##rlin": 5682, "sunshine": 5683, "brought": 5684, "amounts": 5685, "paste": 5686, "##iving": 5687, "scratch": 5688, "##dd": 5689, "amazed": 5690, "scanner": 5691, "paced": 5692, "helplessly": 5693, "coping": 5694, "marina": 5695, "##kat": 5696, "##eer": 5697, "gazing": 5698, "contain": 5699, "rains": 5700, "##torm": 5701, "##uf": 5702, "##fle": 5703, "##uts": 5704, "burns": 5705, "outline": 5706, "swung": 5707, "unified": 5708, "pride": 5709, "expansive": 5710, "dice": 5711, "gal": 5712, "##guard": 5713, "refuse": 5714, "##ned": 5715, "##smo": 5716, "##rod": 5717, "zebra": 5718, "burn": 5719, "##ished": 5720, "speech": 5721, "dealing": 5722, "armenian": 5723, "genocide": 5724, "flanked": 5725, "priests": 5726, "ro": 5727, "grips": 5728, "force": 5729, "##raf": 5730, "##llan": 5731, "adopted": 5732, "mixed": 5733, "veteran": 5734, "load": 5735, "##hole": 5736, "glacial": 5737, "lil": 5738, "submerged": 5739, "vessel": 5740, "el": 5741, "##uding": 5742, "##aru": 5743, "sparsely": 5744, "suspension": 5745, "##fur": 5746, "unison": 5747, "united": 5748, "states": 5749, "ce": 5750, "##bra": 5751, "##tory": 5752, "spin": 5753, "inspecting": 5754, "suburbs": 5755, "faded": 5756, "lego": 5757, "pavilion": 5758, "minnie": 5759, "engraved": 5760, "names": 5761, "memorial": 5762, "twist": 5763, "contemporary": 5764, "corporate": 5765, "whip": 5766, "fling": 5767, "bits": 5768, "sava": 5769, "##nah": 5770, "notes": 5771, "tipped": 5772, "copper": 5773, "miles": 5774, "lakes": 5775, "leaped": 5776, "effort": 5777, "blog": 5778, "collapsed": 5779, "wisconsin": 5780, "##yr": 5781, "leaned": 5782, "shorter": 5783, "anime": 5784, "##layer": 5785, "actors": 5786, "exhaust": 5787, "merchandise": 5788, "mesa": 5789, "##iously": 5790, "##fu": 5791, "blankets": 5792, "guide": 5793, "springer": 5794, "mar": 5795, "canned": 5796, "waking": 5797, "hedge": 5798, "brook": 5799, "##nar": 5800, "relatively": 5801, "squares": 5802, "mosaic": 5803, "steered": 5804, "leafs": 5805, "frown": 5806, "shell": 5807, "humans": 5808, "cooling": 5809, "celebrities": 5810, "musica": 5811, "##dge": 5812, "shadowy": 5813, "comforting": 5814, "##sol": 5815, "stack": 5816, "witches": 5817, "magazine": 5818, "kangaroo": 5819, "fastest": 5820, "stained": 5821, "tongues": 5822, "tinted": 5823, "coli": 5824, "##ins": 5825, "armed": 5826, "rooftop": 5827, "impress": 5828, "##lat": 5829, "##tered": 5830, "monkeys": 5831, "shack": 5832, "daring": 5833, "rested": 5834, "twenty": 5835, "fourth": 5836, "bookstore": 5837, "investigates": 5838, "investigate": 5839, "holiday": 5840, "taps": 5841, "##ful": 5842, "streaks": 5843, "##ically": 5844, "exercised": 5845, "athletics": 5846, "company": 5847, "##ption": 5848, "county": 5849, "##ub": 5850, "##ba": 5851, "traveler": 5852, "junction": 5853, "windshield": 5854, "pause": 5855, "docking": 5856, "chained": 5857, "explorer": 5858, "hank": 5859, "##chi": 5860, "##ef": 5861, "##ado": 5862, "map": 5863, "maps": 5864, "directory": 5865, "reviews": 5866, "organized": 5867, "smoky": 5868, "resembling": 5869, "locomotives": 5870, "lion": 5871, "##uga": 5872, "mas": 5873, "##rade": 5874, "severe": 5875, "dart": 5876, "scrambling": 5877, "keeper": 5878, "converge": 5879, "choice": 5880, "decorate": 5881, "hardly": 5882, "chess": 5883, "falcon": 5884, "prey": 5885, "hawk": 5886, "persian": 5887, "gazed": 5888, "lip": 5889, "knocking": 5890, "ill": 5891, "isolated": 5892, "gandhi": 5893, "flung": 5894, "cub": 5895, "aquatic": 5896, "##tray": 5897, "decor": 5898, "expressway": 5899, "donate": 5900, "sucks": 5901, "dew": 5902, "##ively": 5903, "thinks": 5904, "meter": 5905, "bleak": 5906, "bowing": 5907, "locking": 5908, "lock": 5909, "locks": 5910, "knight": 5911, "holes": 5912, "king": 5913, "queen": 5914, "region": 5915, "heron": 5916, "alter": 5917, "pri": 5918, "##base": 5919, "lac": 5920, "##sho": 5921, "##uh": 5922, "##ette": 5923, "snap": 5924, "##rim": 5925, "##mage": 5926, "##crow": 5927, "pea": 5928, "laden": 5929, "cas": 5930, "avoids": 5931, "evil": 5932, "somehow": 5933, "punching": 5934, "cbs": 5935, "interviews": 5936, "mic": 5937, "question": 5938, "tide": 5939, "swept": 5940, "knocked": 5941, "yong": 5942, "##tor": 5943, "##ade": 5944, "furious": 5945, "##ote": 5946, "##nic": 5947, "explosive": 5948, "effects": 5949, "explosions": 5950, "50": 5951, "gust": 5952, "##rry": 5953, "labor": 5954, "##ador": 5955, "coyote": 5956, "spaced": 5957, "maple": 5958, "prep": 5959, "syrup": 5960, "m": 5961, "established": 5962, "indians": 5963, "interviewed": 5964, "##life": 5965, "##grounds": 5966, "am": 5967, "##use": 5968, "##umen": 5969, "mr": 5970, "features": 5971, "##ao": 5972, "##oor": 5973, "du": 5974, "##par": 5975, "swear": 5976, "letters": 5977, "fully": 5978, "crate": 5979, "granite": 5980, "blasted": 5981, "album": 5982, "peoples": 5983, "containers": 5984, "##kins": 5985, "##dden": 5986, "bas": 5987, "poll": 5988, "mushrooms": 5989, "broad": 5990, "skins": 5991, "algae": 5992, "dogg": 5993, "picket": 5994, "##tern": 5995, "##iard": 5996, "cue": 5997, "retail": 5998, "rifle": 5999, "##ance": 6000, "library": 6001, "fool": 6002, "##sa": 6003, "creamy": 6004, "substance": 6005, "157": 6006, "professionally": 6007, "vibrant": 6008, "discovery": 6009, "arrow": 6010, "patiently": 6011, "##force": 6012, "masonry": 6013, "daylight": 6014, "operated": 6015, "tone": 6016, "##ets": 6017, "extremely": 6018, "staff": 6019, "manager": 6020, "stages": 6021, "escorts": 6022, "drawn": 6023, "shetland": 6024, "currently": 6025, "summers": 6026, "##ault": 6027, "##ders": 6028, "stared": 6029, "measuring": 6030, "rodents": 6031, "sting": 6032, "##ray": 6033, "swam": 6034, "cricketer": 6035, "##ocks": 6036, "##ate": 6037, "receiver": 6038, "protecting": 6039, "search": 6040, "##illy": 6041, "princess": 6042, "condoms": 6043, "##pher": 6044, "##nal": 6045, "distribute": 6046, "website": 6047, "seventh": 6048, "ci": 6049, "server": 6050, "fanny": 6051, "congregation": 6052, "worship": 6053, "extravagant": 6054, "##shot": 6055, "bmw": 6056, "kit": 6057, "eagle": 6058, "grand": 6059, "sparrow": 6060, "caribbean": 6061, "##wall": 6062, "##rn": 6063, "join": 6064, "salt": 6065, "hal": 6066, "##liga": 6067, "##ire": 6068, "pinch": 6069, "possible": 6070, "colonial": 6071, "glee": 6072, "25": 6073, "surroundings": 6074, "restroom": 6075, "##quest": 6076, "##rian": 6077, "bordering": 6078, "necks": 6079, "bee": 6080, "mascot": 6081, "assemble": 6082, "build": 6083, "agency": 6084, "spouse": 6085, "embroidered": 6086, "##mun": 6087, "roses": 6088, "feed": 6089, "intended": 6090, "mine": 6091, "preserves": 6092, "eyeing": 6093, "tilted": 6094, "##ena": 6095, "##ger": 6096, "forcing": 6097, "smashed": 6098, "canadian": 6099, "corners": 6100, "kinds": 6101, "clock": 6102, "renaissance": 6103, "victorian": 6104, "times": 6105, "##tat": 6106, "##storm": 6107, "directly": 6108, "whipping": 6109, "dripping": 6110, "surfaces": 6111, "stroke": 6112, "fantastic": 6113, "marvel": 6114, "##zes": 6115, "fantasy": 6116, "wax": 6117, "##day": 6118, "washington": 6119, "news": 6120, "pots": 6121, "melted": 6122, "wai": 6123, "persons": 6124, "##elo": 6125, "found": 6126, "amount": 6127, "wilde": 6128, "##ast": 6129, "trips": 6130, "strand": 6131, "strung": 6132, "blasts": 6133, "sending": 6134, "##con": 6135, "condom": 6136, "##inium": 6137, "##tam": 6138, "##pts": 6139, "radio": 6140, "flyer": 6141, "##at": 6142, "##bal": 6143, "seeking": 6144, "humorous": 6145, "ste": 6146, "ever": 6147, "since": 6148, "started": 6149, "favorite": 6150, "usual": 6151, "##burg": 6152, "hamburger": 6153, "happen": 6154, "19": 6155, "towing": 6156, "sam": 6157, "##oya": 6158, "untouched": 6159, "##pl": 6160, "##ug": 6161, "hydra": 6162, "thinner": 6163, "umpire": 6164, "bowling": 6165, "choir": 6166, "ensemble": 6167, "utility": 6168, "##lts": 6169, "lame": 6170, "##ddling": 6171, "browns": 6172, "bubbling": 6173, "barely": 6174, "observed": 6175, "challenges": 6176, "##cc": 6177, "santana": 6178, "57": 6179, "climbed": 6180, "##ggs": 6181, "locked": 6182, "sponsorship": 6183, "emblem": 6184, "rights": 6185, "banjo": 6186, "rowe": 6187, "##um": 6188, "##vent": 6189, "real": 6190, "rapid": 6191, "##acker": 6192, "downstream": 6193, "##tin": 6194, "ghost": 6195, "##bus": 6196, "##ators": 6197, "peru": 6198, "section": 6199, "products": 6200, "herbs": 6201, "racks": 6202, "profession": 6203, "##vert": 6204, "##ism": 6205, "magic": 6206, "magician": 6207, "##ben": 6208, "finley": 6209, "introduces": 6210, "invention": 6211, "castles": 6212, "cara": 6213, "##bine": 6214, "attache": 6215, "tends": 6216, "fry": 6217, "linger": 6218, "changing": 6219, "information": 6220, "remove": 6221, "replaces": 6222, "flees": 6223, "enforcement": 6224, "agents": 6225, "shaky": 6226, "##ton": 6227, "##act": 6228, "##ising": 6229, "lobster": 6230, "##met": 6231, "present": 6232, "jew": 6233, "crafts": 6234, "es": 6235, "##cala": 6236, "responding": 6237, "sunni": 6238, "elf": 6239, "##ang": 6240, "mane": 6241, "##mps": 6242, "compound": 6243, "wrecked": 6244, "66": 6245, "##1": 6246, "wreck": 6247, "fray": 6248, "personal": 6249, "ripping": 6250, "##ff": 6251, "##cer": 6252, "##si": 6253, "##zing": 6254, "fleeing": 6255, "prison": 6256, "zipper": 6257, "nave": 6258, "squad": 6259, "then": 6260, "forwards": 6261, "easy": 6262, "aided": 6263, "midfield": 6264, "lightly": 6265, "possibly": 6266, "fishermen": 6267, "##sun": 6268, "closer": 6269, "annoyed": 6270, "##bic": 6271, "exercising": 6272, "mortar": 6273, "cannon": 6274, "destination": 6275, "reveals": 6276, "##watch": 6277, "cent": 6278, "##ipe": 6279, "cater": 6280, "##llar": 6281, "yorkshire": 6282, "rugged": 6283, "detector": 6284, "chief": 6285, "justice": 6286, "gus": 6287, "allowing": 6288, "planting": 6289, "portland": 6290, "oregon": 6291, "certificates": 6292, "diploma": 6293, "ty": 6294, "bitten": 6295, "programs": 6296, "mission": 6297, "fox": 6298, "##ric": 6299, "crotch": 6300, "root": 6301, "burger": 6302, "shake": 6303, "mono": 6304, "stucco": 6305, "spotlight": 6306, "gut": 6307, "##aris": 6308, "binoculars": 6309, "fins": 6310, "beauty": 6311, "##iff": 6312, "hospital": 6313, "smell": 6314, "perspective": 6315, "##meral": 6316, "horn": 6317, "wander": 6318, "flattened": 6319, "ion": 6320, "yarn": 6321, "garment": 6322, "types": 6323, "coral": 6324, "##cht": 6325, "##v": 6326, "footage": 6327, "protected": 6328, "fen": 6329, "representing": 6330, "judge": 6331, "beaver": 6332, "mosque": 6333, "sinking": 6334, "rover": 6335, "automobile": 6336, "gains": 6337, "hers": 6338, "pods": 6339, "tribal": 6340, "cruiser": 6341, "##tooth": 6342, "showered": 6343, "screened": 6344, "roofed": 6345, "##rag": 6346, "poorly": 6347, "##pper": 6348, "toyota": 6349, "serves": 6350, "opened": 6351, "hobby": 6352, "42": 6353, "adjust": 6354, "worked": 6355, "tailed": 6356, "comfortable": 6357, "snoop": 6358, "rivers": 6359, "rags": 6360, "district": 6361, "backgrounds": 6362, "##net": 6363, "ruins": 6364, "recording": 6365, "goth": 6366, "judges": 6367, "rates": 6368, "rolled": 6369, "##vating": 6370, "scientist": 6371, "artifacts": 6372, "##ont": 6373, "##ologist": 6374, "##logist": 6375, "dear": 6376, "doe": 6377, "oak": 6378, "##ama": 6379, "##amp": 6380, "scale": 6381, "controls": 6382, "dumping": 6383, "anger": 6384, "barack": 6385, "filming": 6386, "roots": 6387, "fundraising": 6388, "tripped": 6389, "matt": 6390, "valleys": 6391, "stereo": 6392, "trams": 6393, "contestants": 6394, "badges": 6395, "er": 6396, "##upt": 6397, "completing": 6398, "##dance": 6399, "##horse": 6400, "##nig": 6401, "clasp": 6402, "hovered": 6403, "##sti": 6404, "sidewalks": 6405, "horsemen": 6406, "derby": 6407, "tier": 6408, "##missive": 6409, "advertisements": 6410, "sol": 6411, "##ici": 6412, "stunning": 6413, "olympic": 6414, "medals": 6415, "steal": 6416, "stirred": 6417, "classroom": 6418, "##tively": 6419, "mounds": 6420, "global": 6421, "guides": 6422, "shark": 6423, "##ions": 6424, "##ac": 6425, "protruding": 6426, "awe": 6427, "##list": 6428, "ignore": 6429, "wince": 6430, "angry": 6431, "dupont": 6432, "fixtures": 6433, "aboriginal": 6434, "hacking": 6435, "motors": 6436, "secluded": 6437, "upstream": 6438, "##u": 6439, "liking": 6440, "cds": 6441, "include": 6442, "blank": 6443, "care": 6444, "##breaker": 6445, "mike": 6446, "sv": 6447, "##eral": 6448, "visits": 6449, "ami": 6450, "sect": 6451, "mattress": 6452, "##river": 6453, "mommy": 6454, "wii": 6455, "d": 6456, "veil": 6457, "foreigners": 6458, "stud": 6459, "lace": 6460, "rocker": 6461, "anchored": 6462, "approached": 6463, "lanterns": 6464, "peanut": 6465, "butter": 6466, "toes": 6467, "mature": 6468, "competitors": 6469, "bash": 6470, "direct": 6471, "wavy": 6472, "bud": 6473, "##ser": 6474, "accelerate": 6475, "speedway": 6476, "mole": 6477, "##cking": 6478, "aliens": 6479, "cautiously": 6480, "sure": 6481, "acoustic": 6482, "accompanying": 6483, "gig": 6484, "##olo": 6485, "bursting": 6486, "##bay": 6487, "packers": 6488, "parrot": 6489, "thank": 6490, "angel": 6491, "milling": 6492, "##oe": 6493, "##ows": 6494, "manually": 6495, "bounced": 6496, "burnt": 6497, "##adi": 6498, "rosy": 6499, "nat": 6500, "##fting": 6501, "barrio": 6502, "roman": 6503, "##boats": 6504, "aboard": 6505, "armor": 6506, "drove": 6507, "oddly": 6508, "designed": 6509, "11": 6510, "risen": 6511, "strains": 6512, "##gn": 6513, "tucking": 6514, "troll": 6515, "grid": 6516, "excitement": 6517, "enthusiastic": 6518, "wanting": 6519, "dressing": 6520, "jay": 6521, "taxis": 6522, "angels": 6523, "smack": 6524, "lodge": 6525, "barber": 6526, "arrangement": 6527, "vase": 6528, "objective": 6529, "##ron": 6530, "solid": 6531, "sculptures": 6532, "coasts": 6533, "cock": 6534, "creepy": 6535, "youths": 6536, "entitled": 6537, "promotional": 6538, "fumble": 6539, "##sive": 6540, "defender": 6541, "maintain": 6542, "##hold": 6543, "straining": 6544, "nordic": 6545, "thrust": 6546, "brawl": 6547, "amplifier": 6548, "##otto": 6549, "interior": 6550, "lavender": 6551, "puzzled": 6552, "entertainment": 6553, "texts": 6554, "##horn": 6555, "mega": 6556, "handkerchief": 6557, "adolescents": 6558, "sales": 6559, "merchant": 6560, "circling": 6561, "harvest": 6562, "brave": 6563, "judo": 6564, "nurses": 6565, "momma": 6566, "loading": 6567, "sick": 6568, "##vin": 6569, "um": 6570, "pockets": 6571, "lemon": 6572, "press": 6573, "squeezed": 6574, "tufts": 6575, "uneven": 6576, "spitting": 6577, "spit": 6578, "confronted": 6579, "opposition": 6580, "advance": 6581, "would": 6582, "mansion": 6583, "euro": 6584, "##ats": 6585, "chestnut": 6586, "pace": 6587, "##away": 6588, "fluid": 6589, "faith": 6590, "##made": 6591, "archer": 6592, "10": 6593, "ups": 6594, "operates": 6595, "##rral": 6596, "##wl": 6597, "ringing": 6598, "doorbell": 6599, "preparation": 6600, "hopper": 6601, "ferris": 6602, "redskins": 6603, "scare": 6604, "glare": 6605, "docks": 6606, "nails": 6607, "oil": 6608, "honest": 6609, "trade": 6610, "poem": 6611, "offering": 6612, "giants": 6613, "poems": 6614, "desperate": 6615, "creative": 6616, "garner": 6617, "prof": 6618, "scarred": 6619, "##toy": 6620, "font": 6621, "scattered": 6622, "lost": 6623, "kawasaki": 6624, "##ged": 6625, "##ag": 6626, "partition": 6627, "##grin": 6628, "spare": 6629, "tried": 6630, "villages": 6631, "scored": 6632, "snowfall": 6633, "companions": 6634, "bomber": 6635, "##cho": 6636, "##dda": 6637, "national": 6638, "anthem": 6639, "bout": 6640, "grandmother": 6641, "served": 6642, "##ini": 6643, "##bing": 6644, "cigarettes": 6645, "winston": 6646, "resembles": 6647, "baptized": 6648, "dong": 6649, "##loe": 6650, "dumb": 6651, "weight": 6652, "mage": 6653, "exception": 6654, "##ened": 6655, "tidal": 6656, "##den": 6657, "##dron": 6658, "##antly": 6659, "featuring": 6660, "enters": 6661, "amazement": 6662, "##rous": 6663, "rig": 6664, "##ses": 6665, "muscled": 6666, "draws": 6667, "feel": 6668, "angled": 6669, "lan": 6670, "wharf": 6671, "terminal": 6672, "recorder": 6673, "bracing": 6674, "visitor": 6675, "drug": 6676, "quite": 6677, "ask": 6678, "rockets": 6679, "##tl": 6680, "##tip": 6681, "tagged": 6682, "fielder": 6683, "remember": 6684, "1915": 6685, "1923": 6686, "related": 6687, "heritage": 6688, "##tur": 6689, "text": 6690, "##sco": 6691, "curving": 6692, "ke": 6693, "##ffi": 6694, "##yah": 6695, "evade": 6696, "cry": 6697, "cache": 6698, "miner": 6699, "supervising": 6700, "arranged": 6701, "respectively": 6702, "##mies": 6703, "##nist": 6704, "simpsons": 6705, "##vie": 6706, "##nan": 6707, "joint": 6708, "##pee": 6709, "##nie": 6710, "##nce": 6711, "##cise": 6712, "flows": 6713, "regain": 6714, "composure": 6715, "##ook": 6716, "dc": 6717, "cylinder": 6718, "content": 6719, "sur": 6720, "threshold": 6721, "struck": 6722, "shin": 6723, "purchased": 6724, "calculate": 6725, "volkswagen": 6726, "admired": 6727, "beetle": 6728, "coupe": 6729, "south": 6730, "fighter": 6731, "reared": 6732, "rotating": 6733, "cascade": 6734, "pol": 6735, "##load": 6736, "fear": 6737, "healthy": 6738, "flea": 6739, "controller": 6740, "playstation": 6741, "##castle": 6742, "##cake": 6743, "##bled": 6744, "hell": 6745, "##sw": 6746, "spell": 6747, "ur": 6748, "##inating": 6749, "trained": 6750, "tubes": 6751, "brace": 6752, "woo": 6753, "##ode": 6754, "lily": 6755, "focusing": 6756, "herds": 6757, "scope": 6758, "violins": 6759, "orchestra": 6760, "quintet": 6761, "frustrated": 6762, "##bre": 6763, "##vs": 6764, "cylindrical": 6765, "universal": 6766, "##ja": 6767, "transport": 6768, "##berries": 6769, "informal": 6770, "workshop": 6771, "ignores": 6772, "masters": 6773, "soo": 6774, "those": 6775, "##ort": 6776, "##ioned": 6777, "foraging": 6778, "##fers": 6779, "modeling": 6780, "photographic": 6781, "reviewing": 6782, "took": 6783, "tissue": 6784, "exited": 6785, "did": 6786, "booklet": 6787, "telescopes": 6788, "officials": 6789, "orthodox": 6790, "engaging": 6791, "##sis": 6792, "comic": 6793, "superhero": 6794, "someplace": 6795, "##nat": 6796, "level": 6797, "hen": 6798, "##dis": 6799, "tough": 6800, "cheap": 6801, "crooked": 6802, "amnesty": 6803, "international": 6804, "exchanges": 6805, "attending": 6806, "vested": 6807, "chihuahua": 6808, "tak": 6809, "##rdan": 6810, "typical": 6811, "tre": 6812, "alien": 6813, "attend": 6814, "lakeside": 6815, "fiddle": 6816, "##lights": 6817, "tim": 6818, "horton": 6819, "knocks": 6820, "##us": 6821, "jude": 6822, "blame": 6823, "israel": 6824, "##yp": 6825, "##rites": 6826, "bernard": 6827, "genetic": 6828, "freak": 6829, "perfume": 6830, "concentration": 6831, "muslim": 6832, "angrily": 6833, "##nea": 6834, "##mming": 6835, "guitarists": 6836, "trombone": 6837, "development": 6838, "intercept": 6839, "cube": 6840, "traveller": 6841, "thread": 6842, "thirds": 6843, "##kh": 6844, "spirit": 6845, "pep": 6846, "nations": 6847, "canada": 6848, "##lift": 6849, "bordered": 6850, "gateway": 6851, "##tz": 6852, "##person": 6853, "assault": 6854, "=": 6855, "nylon": 6856, "voice": 6857, "##ull": 6858, "sewing": 6859, "sponsor": 6860, "violinist": 6861, "##ress": 6862, "##sl": 6863, "##ope": 6864, "spelling": 6865, "comprised": 6866, "guests": 6867, "##tort": 6868, "enthusiasts": 6869, "nothing": 6870, "revealed": 6871, "prints": 6872, "factory": 6873, "bunk": 6874, "##nai": 6875, "implements": 6876, "fork": 6877, "utilities": 6878, "menacing": 6879, "grimm": 6880, "din": 6881, "weeping": 6882, "willow": 6883, "pepper": 6884, "queue": 6885, "##rka": 6886, "vocabulary": 6887, "english": 6888, "student": 6889, "##igh": 6890, "##ht": 6891, "arrives": 6892, "wishing": 6893, "abdomen": 6894, "gay": 6895, "shredded": 6896, "##uca": 6897, "##sion": 6898, "##zi": 6899, "fingertips": 6900, "positioned": 6901, "miss": 6902, "scrap": 6903, "##tones": 6904, "average": 6905, "everyday": 6906, "tunic": 6907, "demonstration": 6908, "afi": 6909, "##zo": 6910, "93": 6911, "##wood": 6912, "west": 6913, "highland": 6914, "democrat": 6915, "supporters": 6916, "election": 6917, "greg": 6918, "palace": 6919, "##olin": 6920, "nut": 6921, "##ose": 6922, "africans": 6923, "gaunt": 6924, "fitness": 6925, "##balls": 6926, "##vo": 6927, "peck": 6928, "pastures": 6929, "pines": 6930, "popped": 6931, "graduation": 6932, "##ght": 6933, "##oun": 6934, "maintained": 6935, "##ab": 6936, "andy": 6937, "##ick": 6938, "##dick": 6939, "stiffly": 6940, "mysterious": 6941, "wil": 6942, "##bert": 6943, "opportunity": 6944, "slices": 6945, "coca": 6946, "cottage": 6947, "rotary": 6948, "dial": 6949, "faux": 6950, "##ua": 6951, "disney": 6952, "arabic": 6953, "widely": 6954, "##og": 6955, "populated": 6956, "looked": 6957, "appearing": 6958, "mal": 6959, "##no": 6960, "##shed": 6961, "##ex": 6962, "hs": 6963, "##ir": 6964, "losing": 6965, "le": 6966, "##cturing": 6967, "clue": 6968, "shut": 6969, "de": 6970, "pub": 6971, "removes": 6972, "vegetable": 6973, "fruits": 6974, "venture": 6975, "portfolio": 6976, "cases": 6977, "##ries": 6978, "burrows": 6979, "bullet": 6980, "##eta": 6981, "buffet": 6982, "disrupt": 6983, "disguise": 6984, "supervision": 6985, "hissing": 6986, "capture": 6987, "tun": 6988, "##dra": 6989, "choreographed": 6990, "origin": 6991, "cole": 6992, "##cting": 6993, "common": 6994, "vi": 6995, "expose": 6996, "dolphins": 6997, "##ffle": 6998, "caucasian": 6999, "gem": 7000, "##sure": 7001, "graham": 7002, "breasts": 7003, "separated": 7004, "grimace": 7005, "yet": 7006, "shipping": 7007, "zone": 7008, "##ounded": 7009, "nowhere": 7010, "dashboard": 7011, "twelve": 7012, "diamond": 7013, "curls": 7014, "##ching": 7015, "vacation": 7016, "##lings": 7017, "porcelain": 7018, "folds": 7019, "cathedral": 7020, "cables": 7021, "proudly": 7022, "ruin": 7023, "edged": 7024, "highs": 7025, "defended": 7026, "dramatic": 7027, "forearm": 7028, "shortly": 7029, "mitsubishi": 7030, "##kling": 7031, "roads": 7032, "sink": 7033, "referees": 7034, "collaborating": 7035, "calming": 7036, "defense": 7037, "tasting": 7038, "forearms": 7039, "measures": 7040, "depth": 7041, "steak": 7042, "shivering": 7043, "shivers": 7044, "anything": 7045, "58": 7046, "shields": 7047, "unconventional": 7048, "naturally": 7049, "trio": 7050, "grazing": 7051, "##icles": 7052, "##cic": 7053, "damp": 7054, "32": 7055, "directing": 7056, "director": 7057, "mama": 7058, "conditions": 7059, "##als": 7060, "crescent": 7061, "skill": 7062, "##pling": 7063, "##shing": 7064, "ping": 7065, "ja": 7066, "##cu": 7067, "##zzi": 7068, "laughed": 7069, "extending": 7070, "iv": 7071, "soc": 7072, "twins": 7073, "##mic": 7074, "beats": 7075, "talent": 7076, "shire": 7077, "headline": 7078, "angles": 7079, "sniffed": 7080, "smelled": 7081, "refugees": 7082, "families": 7083, "blades": 7084, "mercury": 7085, "##nc": 7086, "offered": 7087, "happiness": 7088, "sedan": 7089, "dropped": 7090, "cruising": 7091, "pursuing": 7092, "miscellaneous": 7093, "rearview": 7094, "streams": 7095, "90": 7096, "degrees": 7097, "deco": 7098, "yer": 7099, "buena": 7100, "##ack": 7101, "exposition": 7102, "arranging": 7103, "banana": 7104, "barrels": 7105, "##gua": 7106, "wrestled": 7107, "reptiles": 7108, "lizards": 7109, "dominance": 7110, "shells": 7111, "cereal": 7112, "pipeline": 7113, "catholic": 7114, "##it": 7115, "kerry": 7116, "donkey": 7117, "mule": 7118, "buddhist": 7119, "bad": 7120, "beating": 7121, "bon": 7122, "##sie": 7123, "##oned": 7124, "arrows": 7125, "fay": 7126, "bob": 7127, "hail": 7128, "signaling": 7129, "needs": 7130, "orient": 7131, "rectangular": 7132, "wards": 7133, "espana": 7134, "spain": 7135, "pomeranian": 7136, "##ree": 7137, "tipping": 7138, "proof": 7139, "chemical": 7140, "actor": 7141, "sections": 7142, "ken": 7143, "##nel": 7144, "gov": 7145, "least": 7146, "##vio": 7147, "lookout": 7148, "viewpoint": 7149, "slowly": 7150, "emotionally": 7151, "##tate": 7152, "dozen": 7153, "##bound": 7154, "texas": 7155, "already": 7156, "shift": 7157, "##hiff": 7158, "frowns": 7159, "horizontally": 7160, "fiercely": 7161, "##8": 7162, "##put": 7163, "sentence": 7164, "##sur": 7165, "brake": 7166, "smells": 7167, "werewolf": 7168, "lantern": 7169, "ji": 7170, "der": 7171, "##ssed": 7172, "sid": 7173, "garments": 7174, "peacefully": 7175, "pleasant": 7176, "trend": 7177, "##ml": 7178, "canals": 7179, "gan": 7180, "##illa": 7181, "shouts": 7182, "footed": 7183, "historic": 7184, "##tro": 7185, "##wee": 7186, "campaign": 7187, "supporter": 7188, "##rae": 7189, "israeli": 7190, "##ith": 7191, "accessories": 7192, "memorabilia": 7193, "observer": 7194, "dash": 7195, "went": 7196, "got": 7197, "ave": 7198, "##da": 7199, "buys": 7200, "eccentric": 7201, "scores": 7202, "twists": 7203, "##inging": 7204, "djs": 7205, "killer": 7206, "whales": 7207, "##world": 7208, "##ship": 7209, "ass": 7210, "##orted": 7211, "einstein": 7212, "albert": 7213, "##eri": 7214, "##bn": 7215, "goodbye": 7216, "chilly": 7217, "mia": 7218, "tests": 7219, "tune": 7220, "dumped": 7221, "sour": 7222, "ins": 7223, "##tructing": 7224, "##truct": 7225, "patrick": 7226, "shamrock": 7227, "plenty": 7228, "performed": 7229, "slate": 7230, "une": 7231, "##ywood": 7232, "apparently": 7233, "##lls": 7234, "berries": 7235, "##wer": 7236, "nurse": 7237, "##lim": 7238, "thong": 7239, "questioning": 7240, "pitched": 7241, "##lah": 7242, "discussion": 7243, "foo": 7244, "##sb": 7245, "developing": 7246, "nation": 7247, "rev": 7248, "encounters": 7249, "steve": 7250, "nash": 7251, "bases": 7252, "italian": 7253, "literature": 7254, "##dom": 7255, "##ek": 7256, "##umb": 7257, "##lies": 7258, "##gan": 7259, "involves": 7260, "presentations": 7261, "##how": 7262, "sibling": 7263, "horned": 7264, "##view": 7265, "suffering": 7266, "serena": 7267, "williams": 7268, "shocks": 7269, "rash": 7270, "grows": 7271, "coarse": 7272, "##pt": 7273, "##uno": 7274, "stood": 7275, "pharmacy": 7276, "rite": 7277, "broadway": 7278, "##jo": 7279, "buckled": 7280, "##ae": 7281, "greens": 7282, "supermarket": 7283, "possessive": 7284, "breach": 7285, "grasslands": 7286, "raked": 7287, "undone": 7288, "swiftly": 7289, "identification": 7290, "nervous": 7291, "directed": 7292, "discs": 7293, "##rina": 7294, "woodlands": 7295, "##rit": 7296, "##he": 7297, "wizards": 7298, "perfect": 7299, "barrett": 7300, "suspiciously": 7301, "heel": 7302, "##sc": 7303, "##rew": 7304, "##bbly": 7305, "encourages": 7306, "##git": 7307, "sends": 7308, "quick": 7309, "les": 7310, "rooster": 7311, "san": 7312, "diego": 7313, "neat": 7314, "golfer": 7315, "examined": 7316, "jaws": 7317, "joins": 7318, "##oes": 7319, "holder": 7320, "coaches": 7321, "floated": 7322, "sabre": 7323, "wars": 7324, "##lem": 7325, "pont": 7326, "##oon": 7327, "ally": 7328, "recreation": 7329, "##buck": 7330, "pound": 7331, "hr": 7332, "liked": 7333, "inch": 7334, "armour": 7335, "stays": 7336, "saharan": 7337, "motivation": 7338, "leader": 7339, "eroded": 7340, "overwhelmed": 7341, "onslaught": 7342}